<unk>	0
<bos>	0
<eos>	0
<pad>	0
<|begin_of_sample|>	0
<|end_of_sample|>	0
<|type|>	0
<|instruction|>	0
<|response|>	0
an	-0
da	-1
ar	-2
▁da	-3
in	-4
▁k	-5
▁s	-6
▁a	-7
ma	-8
wa	-9
ta	-10
ya	-11
▁n	-12
ka	-13
ba	-14
▁g	-15
un	-16
▁ta	-17
sa	-18
man	-19
▁ma	-20
ci	-21
▁ka	-22
▁sa	-23
▁h	-24
yan	-25
▁z	-26
▁wa	-27
en	-28
▁na	-29
▁ba	-30
▁t	-31
▁f	-32
▁ya	-33
▁ku	-34
▁r	-35
▁sh	-36
wan	-37
kin	-38
ara	-39
▁ci	-40
ke	-41
▁za	-42
on	-43
su	-44
▁d	-45
ir	-46
▁su	-47
▁kuma	-48
▁b	-49
▁am	-50
ani	-51
sh	-52
ana	-53
la	-54
ga	-55
▁amf	-56
ce	-57
ki	-58
ur	-59
mar	-60
yar	-61
oma	-62
iya	-63
▁ga	-64
▁A	-65
▁y	-66
sar	-67
▁yan	-68
mu	-69
min	-70
li	-71
▁man	-72
▁amfani	-73
▁ƙ	-74
▁j	-75
uwa	-76
▁ha	-77
tar	-78
ann	-79
cin	-80
▁ke	-81
▁ra	-82
▁ko	-83
▁cikin	-84
▁wan	-85
▁waj	-86
oman	-87
kan	-88
war	-89
▁do	-90
bin	-91
▁shi	-92
▁wajen	-93
tu	-94
▁i	-95
are	-96
kar	-97
▁mu	-98
▁kan	-99
▁in	-100
▁ne	-101
▁ce	-102
na	-103
▁ake	-104
dan	-105
lo	-106
▁mai	-107
▁han	-108
▁noma	-109
▁sun	-110
▁zaman	-111
yin	-112
fa	-113
▁fa	-114
▁daga	-115
▁yi	-116
▁domin	-117
▁K	-118
▁yana	-119
▁ki	-120
▁M	-121
dda	-122
um	-123
▁D	-124
▁zamani	-125
▁masu	-126
▁N	-127
▁ji	-128
fi	-129
uka	-130
bi	-131
mi	-132
▁H	-133
har	-134
▁al	-135
▁abin	-136
▁samar	-137
lin	-138
▁dab	-139
ra	-140
yo	-141
wam	-142
▁S	-143
▁gaba	-144
▁sam	-145
gan	-146
▁yadda	-147
▁la	-148
▁har	-149
bo	-150
▁fi	-151
▁mata	-152
▁noman	-153
hi	-154
ye	-155
▁lo	-156
annan	-157
ɗa	-158
▁yin	-159
▁loka	-160
▁ƙa	-161
▁wanda	-162
00	-163
▁tsa	-164
wamna	-165
shi	-166
er	-167
ha	-168
▁tare	-169
▁tsar	-170
wamnat	-171
▁samun	-172
▁cewa	-173
una	-174
▁ai	-175
▁bi	-176
▁gon	-177
▁c	-178
▁Ha	-179
mman	-180
bu	-181
▁gu	-182
anin	-183
▁kai	-184
▁abinci	-185
yi	-186
▁kar	-187
ganta	-188
ina	-189
sara	-190
▁suka	-191
▁ana	-192
▁zuwa	-193
▁bayan	-194
▁aka	-195
annin	-196
tsa	-197
▁G	-198
ima	-199
▁kiw	-200
yoyin	-201
▁fannin	-202
▁W	-203
▁ruwa	-204
or	-205
▁Da	-206
▁iya	-207
▁gona	-208
▁manoma	-209
▁gwamnat	-210
ban	-211
ko	-212
Ya	-213
tan	-214
▁sha	-215
▁matsa	-216
ji	-217
▁an	-218
unan	-219
▁hanyar	-220
dar	-221
yya	-222
▁rani	-223
▁aikin	-224
▁taima	-225
▁1	-226
shen	-227
▁inganta	-228
ts	-229
ƙa	-230
bba	-231
▁kasar	-232
▁taimaka	-233
uk	-234
gar	-235
▁cu	-236
▁kasu	-237
ai	-238
▁(	-239
tun	-240
umma	-241
▁fara	-242
re	-243
us	-244
▁T	-245
usa	-246
▁so	-247
▁R	-248
nan	-249
shin	-250
▁jihar	-251
ek	-252
to	-253
▁B	-254
▁w	-255
bar	-256
▁ban	-257
tta	-258
▁Ma	-259
arra	-260
uwan	-261
Ka	-262
yu	-263
fin	-264
▁musa	-265
▁Hausa	-266
▁takin	-267
▁lokacin	-268
▁ir	-269
▁Ana	-270
▁saur	-271
▁dabbo	-272
▁wannan	-273
▁amfanin	-274
▁gwamnatin	-275
ari	-276
▁gir	-277
▁suna	-278
ttu	-279
▁Ka	-280
arin	-281
▁dai	-282
danar	-283
arrafa	-284
▁kayan	-285
▁gudanar	-286
▁rag	-287
▁sau	-288
▁inda	-289
▁wada	-290
▁kiwon	-291
▁I	-292
tuttu	-293
▁ƙara	-294
▁kamar	-295
▁tabba	-296
▁yawan	-297
▁musamman	-298
di	-299
▁F	-300
▁shuka	-301
▁dabbobi	-302
din	-303
sana	-304
▁fasa	-305
▁yank	-306
▁ƙasar	-307
▁tsarin	-308
▁cututtu	-309
wo	-310
▁Z	-311
she	-312
ung	-313
▁damar	-314
jer	-315
ken	-316
san	-317
▁ɗa	-318
jeriya	-319
▁damin	-320
▁Wannan	-321
▁manyan	-322
▁kasuwan	-323
▁bu	-324
anda	-325
▁ili	-326
▁sai	-327
▁zai	-328
▁idan	-329
▁rage	-330
▁hakan	-331
▁manoman	-332
▁sarrafa	-333
▁san	-334
▁kara	-335
uba	-336
▁Na	-337
▁ja	-338
▁bun	-339
▁daya	-340
▁damina	-341
▁sauran	-342
Ma	-343
▁‘	-344
▁Ni	-345
▁Ya	-346
▁don	-347
▁gan	-348
▁kasa	-349
▁shir	-350
▁wani	-351
▁wasu	-352
▁ruwan	-353
▁lokaci	-354
▁yankunan	-355
lar	-356
▁ar	-357
▁tabbatar	-358
zu	-359
▁ri	-360
inci	-361
kama	-362
taki	-363
▁Man	-364
▁fus	-365
▁ita	-366
▁tana	-367
uri	-368
tane	-369
▁gar	-370
▁kya	-371
▁sab	-372
ekara	-373
▁buka	-374
▁hanyoyin	-375
▁taimakawa	-376
zi	-377
▁2	-378
kon	-379
yen	-380
fiya	-381
Noman	-382
▁dama	-383
▁muhi	-384
▁suke	-385
▁matasa	-386
so	-387
ula	-388
▁tu	-389
anan	-390
yyan	-391
▁duk	-392
▁kwa	-393
▁gina	-394
▁samu	-395
▁yawa	-396
▁fitar	-397
▁masana	-398
za	-399
cen	-400
ukar	-401
▁dan	-402
▁dun	-403
▁dace	-404
▁fuskan	-405
Da	-406
le	-407
jin	-408
▁gi	-409
garen	-410
kanin	-411
yyana	-412
▁kyau	-413
▁ƙasa	-414
▁bishi	-415
▁muhimman	-416
Wa	-417
lla	-418
sai	-419
ɗin	-420
▁mi	-421
boda	-422
▁arzi	-423
▁irin	-424
▁kare	-425
ttalin	-426
▁sosai	-427
▁yanzu	-428
▁duniya	-429
▁lafiya	-430
▁shekara	-431
▁cututtuka	-432
▁Y	-433
▁m	-434
kwa	-435
▁Za	-436
kasa	-437
▁far	-438
fiyar	-439
▁haɗa	-440
▁sama	-441
▁taki	-442
▁dabar	-443
▁garga	-444
▁shiga	-445
▁mataki	-446
▁sabbin	-447
▁fasahar	-448
▁bangaren	-449
du	-450
go	-451
ti	-452
▁C	-453
000	-454
far	-455
ira	-456
▁Sa	-457
ttun	-458
▁mag	-459
▁nan	-460
darwa	-461
▁jiki	-462
▁kula	-463
▁tara	-464
incike	-465
▁saboda	-466
▁bayyana	-467
▁harshen	-468
▁kasuwann	-469
jo	-470
ccen	-471
jiya	-472
▁dog	-473
▁nau	-474
▁tun	-475
▁masara	-476
▁wadata	-477
▁bunkasa	-478
▁dabarun	-479
▁lafiyar	-480
▁sadarwa	-481
▁gargajiya	-482
AB	-483
be	-484
ori	-485
ƴan	-486
▁Ba	-487
▁Sh	-488
tsina	-489
▁amma	-490
▁ciga	-491
▁kiwo	-492
▁kwar	-493
▁nuna	-494
▁rana	-495
▁sana	-496
▁shan	-497
▁sannan	-498
▁Katsina	-499
▁Nijeriya	-500
▁tattalin	-501
him	-502
ura	-503
won	-504
▁Ki	-505
▁Wa	-506
▁wu	-507
,000	-508
▁wur	-509
▁Noma	-510
▁kowa	-511
▁rake	-512
▁take	-513
▁girma	-514
▁kafin	-515
▁kowan	-516
▁manha	-517
andaban	-518
▁wadatar	-519
▁dabandaban	-520
AS	-521
ik	-522
ABA	-523
mma	-524
sir	-525
uma	-526
yoyi	-527
▁100	-528
▁yau	-529
▁ƙar	-530
lolin	-531
Mataki	-532
▁cewar	-533
▁hanka	-534
▁sayar	-535
▁wadan	-536
▁Manoma	-537
▁ilimin	-538
▁mutane	-539
▁bincike	-540
▁manhajo	-541
▁matsalar	-542
▁tsakanin	-543
ll	-544
me	-545
lan	-546
▁Fa	-547
▁In	-548
▁Ra	-549
ikko	-550
barka	-551
sance	-552
yuwar	-553
▁hada	-554
▁kama	-555
▁raba	-556
▁wake	-557
▁zama	-558
▁bayani	-559
▁bukata	-560
▁yanayi	-561
▁matsalolin	-562
ri	-563
ers	-564
ssa	-565
ubu	-566
ure	-567
Idan	-568
dana	-569
kara	-570
ungi	-571
▁abu	-572
▁bab	-573
▁waɗ	-574
kokin	-575
liyan	-576
▁Haka	-577
▁baya	-578
▁kaya	-579
▁kimi	-580
▁Dikko	-581
▁fahim	-582
▁ilimi	-583
▁bayanai	-584
▁kasance	-585
▁wadanda	-586
▁kasuwanni	-587
Ta	-588
et	-589
▁J	-590
hal	-591
kir	-592
uga	-593
▁Af	-594
antu	-595
gwar	-596
▁cin	-597
▁kal	-598
▁tar	-599
ancin	-600
gwaro	-601
urori	-602
▁aiki	-603
▁bada	-604
▁cika	-605
▁ciya	-606
▁gida	-607
▁kawo	-608
▁zuba	-609
▁kudin	-610
▁tsari	-611
▁cigaba	-612
▁dogara	-613
▁kowane	-614
▁albarka	-615
▁bayanan	-616
▁rayuwar	-617
▁Najeriya	-618
▁bishiyar	-619
▁mangwaro	-620
▁matsayin	-621
▁3	-622
▁ɗ	-623
jar	-624
▁Ta	-625
ekar	-626
▁bai	-627
ssara	-628
▁daji	-629
▁haka	-630
▁matu	-631
▁girbi	-632
▁sanya	-633
kamakon	-634
▁fasaha	-635
▁kasuwa	-636
▁shekar	-637
▁abincin	-638
▁karkara	-639
▁harkokin	-640
▁cututtukan	-641
▁ingantattun	-642
AD	-643
ot	-644
ut	-645
ƙi	-646
ben	-647
ƙir	-648
▁Am	-649
▁Fi	-650
▁li	-651
ekta	-652
irka	-653
umar	-654
▁ada	-655
▁tat	-656
▁akan	-657
▁ciki	-658
▁kada	-659
▁sina	-660
▁zafi	-661
▁ɗaya	-662
▁Bayan	-663
▁hekta	-664
▁naira	-665
▁Afirka	-666
▁magung	-667
▁yankin	-668
▁kananan	-669
▁kimiyya	-670
▁miliyan	-671
▁tarayya	-672
do	-673
ja	-674
▁L	-675
▁P	-676
ane	-677
oto	-678
uke	-679
wai	-680
▁20	-681
▁ni	-682
Dali	-683
aren	-684
inka	-685
llum	-686
orar	-687
uren	-688
ƙasa	-689
▁Kan	-690
▁hai	-691
▁isa	-692
▁kir	-693
ariya	-694
iyaye	-695
manin	-696
▁kwan	-697
▁lala	-698
▁musu	-699
mataki	-700
▁faɗin	-701
▁ganin	-702
▁jikin	-703
▁talla	-704
Dalilin	-705
▁harkar	-706
▁kamata	-707
▁kirkir	-708
▁kiyaye	-709
▁kowace	-710
▁kullum	-711
▁shukar	-712
▁hankali	-713
▁kayayya	-714
▁kimanin	-715
▁fuskantar	-716
▁kasuwanci	-717
▁sakamakon	-718
▁albarkatun	-719
▁wadataccen	-720
▁matakimataki	-721
Ba	-722
de	-723
fu	-724
ƙe	-725
ɓa	-726
▁ɓ	-727
tir	-728
tsi	-729
yyu	-730
▁AI	-731
▁is	-732
aƴan	-733
fafa	-734
kwai	-735
mani	-736
sali	-737
tuwa	-738
▁Yin	-739
▁bir	-740
▁has	-741
tanet	-742
▁dasa	-743
▁gano	-744
▁gwan	-745
▁hann	-746
▁samo	-747
▁yake	-748
▁yara	-749
▁cikak	-750
▁gonar	-751
▁kakar	-752
▁kawai	-753
▁muhal	-754
▁sauƙa	-755
▁shanu	-756
▁yayin	-757
▁Zamani	-758
▁ganyen	-759
▁bunƙasa	-760
▁waɗanda	-761
▁karancin	-762
▁kirkirar	-763
EN	-764
el	-765
gi	-766
hu	-767
ku	-768
si	-769
▁Ƴ	-770
Har	-771
eut	-772
kai	-773
uni	-774
ƙin	-775
▁hu	-776
Kada	-777
kere	-778
lika	-779
zari	-780
▁Abu	-781
▁Aka	-782
▁tam	-783
▁ƙir	-784
katar	-785
▁Hoto	-786
▁Reut	-787
▁ayyu	-788
▁biyu	-789
▁dali	-790
▁jama	-791
▁kere	-792
▁raya	-793
▁wata	-794
▁Garin	-795
▁Nijar	-796
▁adana	-797
▁fadin	-798
▁kansu	-799
▁kashe	-800
▁kwari	-801
▁mayar	-802
▁taron	-803
▁tsara	-804
▁tsaro	-805
▁babban	-806
▁hasken	-807
▁nomawa	-808
▁rashin	-809
▁shirin	-810
▁tsadar	-811
▁ƙirƙir	-812
wamnatin	-813
▁Fassara	-814
▁Manoman	-815
▁Reuters	-816
▁ayyukan	-817
▁bukatar	-818
▁intanet	-819
▁sauƙaƙe	-820
▁sayarwa	-821
▁sinadar	-822
▁fahimtar	-823
▁gwamnati	-824
▁kerekere	-825
▁muhimmancin	-826
AI	-827
AN	-828
Ha	-829
RT	-830
co	-831
ed	-832
ly	-833
mo	-834
oƙ	-835
▁U	-836
ASU	-837
Ana	-838
RAI	-839
bai	-840
lwa	-841
uki	-842
ɗaɗ	-843
▁Al	-844
▁Ji	-845
▁di	-846
LABA	-847
Shar	-848
kari	-849
tara	-850
urka	-851
▁Ita	-852
▁NAS	-853
▁ray	-854
▁yun	-855
▁ƙoƙ	-856
▁ƴan	-857
barun	-858
buwan	-859
sarar	-860
shiya	-861
▁Abba	-862
▁MASU	-863
▁Ruwa	-864
▁Tuma	-865
▁Yana	-866
▁buƙa	-867
▁cire	-868
▁fila	-869
▁fito	-870
▁kuwa	-871
▁kwam	-872
▁mada	-873
▁soya	-874
▁tsaf	-875
▁wato	-876
Sharhi	-877
dannan	-878
ugaban	-879
▁Auren	-880
▁Horar	-881
▁Jihar	-882
▁hatsi	-883
▁neman	-884
▁sassa	-885
▁wayar	-886
▁ƙungi	-887
▁Ƴaƴan	-888
LABARAI	-889
▁Amurka	-890
▁NASABA	-891
▁Zariya	-892
▁arziki	-893
▁haɗaka	-894
▁kwakwa	-895
▁shinka	-896
▁shirya	-897
▁Dabarun	-898
▁Itatuwa	-899
▁Tumatir	-900
▁arzikin	-901
▁gonakin	-902
▁muhalli	-903
▁shekaru	-904
▁tattara	-905
▁yanayin	-906
▁cikakken	-907
EM	-908
IS	-909
Ki	-910
VE	-911
gh	-912
ho	-913
pe	-914
se	-915
▁'	-916
▁,	-917
▁4	-918
▁9	-919
ENT	-920
iki	-921
ini	-922
ita	-923
omi	-924
ona	-925
ota	-926
rus	-927
sha	-928
yon	-929
▁Ci	-930
▁to	-931
ADVE	-932
ISEM	-933
Kaza	-934
daye	-935
futa	-936
gaka	-937
irbi	-938
irga	-939
lula	-940
muka	-941
shir	-942
yaba	-943
yara	-944
▁202	-945
▁Ban	-946
▁are	-947
▁bur	-948
▁can	-949
▁gur	-950
▁iri	-951
▁kau	-952
▁mar	-953
▁ran	-954
▁son	-955
▁tso	-956
ciyar	-957
▁Kasa	-958
▁Kiwo	-959
▁amsa	-960
▁bana	-961
▁fili	-962
▁gadi	-963
▁iska	-964
▁tuma	-965
▁waje	-966
ADVERT	-967
▁Girbi	-968
▁Zaben	-969
▁akwai	-970
▁asara	-971
▁bayar	-972
▁darus	-973
▁farko	-974
▁ingan	-975
▁shafi	-976
▁tamba	-977
▁wucin	-978
ISEMENT	-979
▁birane	-980
▁rayuwa	-981
▁salula	-982
▁shawar	-983
▁tushen	-984
▁cewarsa	-985
▁gabatar	-986
▁wuraren	-987
▁fuskanta	-988
▁kwamfuta	-989
▁ƙungiyar	-990
▁bishiyoyi	-991
▁kwakwalwa	-992
▁sinadaran	-993
▁kayayyakin	-994
▁magungunan	-995
ADVERTISEMENT	-996
,"	-997
?"	-998
Na	-999
Ra	-1000
ae	-1001
fe	-1002
je	-1003
ro	-1004
dai	-1005
hon	-1006
kra	-1007
oka	-1008
ren	-1009
tum	-1010
umi	-1011
▁So	-1012
▁Su	-1013
Kula	-1014
buwa	-1015
etur	-1016
garo	-1017
ghum	-1018
irya	-1019
lato	-1020
rewa	-1021
sawa	-1022
waki	-1023
yuka	-1024
▁Don	-1025
▁ago	-1026
▁gin	-1027
▁jan	-1028
▁lan	-1029
,000,	-1030
Waken	-1031
zarin	-1032
ɗaɗen	-1033
▁Taki	-1034
▁cibi	-1035
▁duba	-1036
▁fari	-1037
▁game	-1038
▁haɓa	-1039
▁jari	-1040
▁jure	-1041
▁kifi	-1042
▁mafi	-1043
▁sani	-1044
▁suya	-1045
okacin	-1046
orghum	-1047
ukumar	-1048
yankar	-1049
▁Kiwon	-1050
▁arewa	-1051
▁asali	-1052
▁ayaba	-1053
▁ciyar	-1054
▁dabin	-1055
▁fetur	-1056
▁gyara	-1057
▁hanya	-1058
▁kusan	-1059
▁makar	-1060
▁tsaye	-1061
▁wadda	-1062
▁zuwan	-1063
▁Dasawa	-1064
▁Filato	-1065
▁Masana	-1066
▁alkama	-1067
▁amfana	-1068
▁daidai	-1069
▁daukar	-1070
▁dogaro	-1071
▁farkon	-1072
▁haifar	-1073
▁kyauta	-1074
▁lalata	-1075
▁rigaka	-1076
▁saurin	-1077
▁shirye	-1078
▁tsafta	-1079
▁wurare	-1080
▁buƙatar	-1081
▁dalibai	-1082
▁kuɗaɗen	-1083
▁ƙoƙarin	-1084
▁farashin	-1085
▁gwandaye	-1086
▁kasashen	-1087
▁wadannan	-1088
▁manhajojin	-1089
▁muhimmanci	-1090
,”	-1091
AR	-1092
Sa	-1093
Sh	-1094
mf	-1095
te	-1096
ul	-1097
wi	-1098
▁"	-1099
▁p	-1100
Ban	-1101
Shi	-1102
bta	-1103
gen	-1104
gin	-1105
hya	-1106
kta	-1107
oci	-1108
tse	-1109
une	-1110
ɗɗa	-1111
▁1:	-1112
▁An	-1113
▁DA	-1114
▁ro	-1115
▁si	-1116
▁ti	-1117
Wasu	-1118
anka	-1119
anni	-1120
anta	-1121
arba	-1122
basa	-1123
cine	-1124
duwa	-1125
oton	-1126
tion	-1127
tsun	-1128
uran	-1129
▁Gly	-1130
▁and	-1131
▁gwi	-1132
▁kun	-1133
▁lam	-1134
▁war	-1135
▁ɗin	-1136
antun	-1137
bakar	-1138
suwan	-1139
ulawa	-1140
▁Faba	-1141
▁Gona	-1142
▁Wake	-1143
▁babu	-1144
▁buhu	-1145
▁dafa	-1146
▁fama	-1147
▁guda	-1148
▁hali	-1149
▁hana	-1150
▁hars	-1151
▁kafa	-1152
▁kaji	-1153
▁koya	-1154
▁kudi	-1155
▁kusa	-1156
▁rawa	-1157
▁rung	-1158
▁taba	-1159
▁taka	-1160
▁waha	-1161
▁wuri	-1162
▁ɓara	-1163
Harkar	-1164
ananan	-1165
▁Filin	-1166
▁biyar	-1167
▁canza	-1168
▁dogon	-1169
▁hannu	-1170
▁karfi	-1171
▁magan	-1172
▁mutum	-1173
▁sauki	-1174
▁sauƙi	-1175
▁shigo	-1176
▁shiri	-1177
▁tsaki	-1178
▁tushe	-1179
▁zaune	-1180
▁ɗauka	-1181
▁ɗauki	-1182
Lokacin	-1183
aikatar	-1184
▁babbar	-1185
▁ciyawa	-1186
▁ciyayi	-1187
▁dabino	-1188
▁ginshi	-1189
▁haɓaka	-1190
▁kaluba	-1191
▁kuzari	-1192
▁nasara	-1193
▁shafar	-1194
▁tsawon	-1195
▁yaduwa	-1196
Kazalika	-1197
▁Glycine	-1198
▁Inganta	-1199
▁darussa	-1200
▁farashi	-1201
▁inganci	-1202
▁kauyuka	-1203
▁yankuna	-1204
▁ƙananan	-1205
▁ƙarfafa	-1206
▁ɓarayin	-1207
▁Abubakar	-1208
▁Mayankar	-1209
▁abubuwan	-1210
▁danganta	-1211
▁hankalin	-1212
▁ingantac	-1213
▁shinkafa	-1214
▁Gwamnatin	-1215
▁cibiyoyin	-1216
▁manhajoji	-1217
▁kasuwannin	-1218
▁shiryeshir	-1219
▁Ingantattun	-1220
),	-1221
).	-1222
30	-1223
50	-1224
OM	-1225
To	-1226
ad	-1227
by	-1228
fo	-1229
ne	-1230
ow	-1231
▁6	-1232
▁E	-1233
▁e	-1234
▁o	-1235
▁Ƙ	-1236
ano	-1237
anu	-1238
bun	-1239
ene	-1240
ewa	-1241
hin	-1242
hun	-1243
lai	-1244
lam	-1245
med	-1246
mul	-1247
uci	-1248
zel	-1249
ƙar	-1250
▁90	-1251
▁fe	-1252
▁go	-1253
▁il	-1254
▁je	-1255
Okra	-1256
Wake	-1257
arar	-1258
ceae	-1259
diya	-1260
guna	-1261
kuri	-1262
liyu	-1263
lmar	-1264
mban	-1265
mbin	-1266
orin	-1267
otin	-1268
sani	-1269
wara	-1270
▁Mah	-1271
▁aji	-1272
▁bar	-1273
▁din	-1274
▁fur	-1275
▁gud	-1276
▁jin	-1277
▁rah	-1278
▁wai	-1279
▁zur	-1280
Kiwon	-1281
gilar	-1282
irgaz	-1283
limin	-1284
salin	-1285
sshen	-1286
▁2026	-1287
▁adam	-1288
▁bisa	-1289
▁dawa	-1290
▁dawo	-1291
▁fada	-1292
▁fadi	-1293
▁gwam	-1294
▁jami	-1295
▁jiho	-1296
▁koma	-1297
▁koyo	-1298
▁masa	-1299
▁maso	-1300
▁mita	-1301
▁mota	-1302
▁sami	-1303
▁tari	-1304
▁tsir	-1305
Masara	-1306
Wannan	-1307
ummawa	-1308
ƙashin	-1309
▁Aliyu	-1310
▁Awaki	-1311
▁Raɗɗa	-1312
▁Yahya	-1313
▁cimma	-1314
▁gaban	-1315
▁injin	-1316
▁irare	-1317
▁kadai	-1318
▁koyon	-1319
▁kuɗin	-1320
▁sabon	-1321
▁sanar	-1322
▁sanyi	-1323
▁tarak	-1324
▁yayya	-1325
shekara	-1326
▁Kulawa	-1327
▁Shirya	-1328
▁adadin	-1329
▁albasa	-1330
▁galmar	-1331
▁hannun	-1332
▁kalmar	-1333
▁karatu	-1334
▁kwarin	-1335
▁lalace	-1336
▁magana	-1337
▁makama	-1338
▁manomi	-1339
▁zirgaz	-1340
▁arziƙin	-1341
▁bishiya	-1342
▁cigaban	-1343
▁furotin	-1344
▁matakai	-1345
▁matakan	-1346
▁matukar	-1347
▁nasarar	-1348
▁nazarin	-1349
▁samarwa	-1350
▁yunkuri	-1351
▁dabbobin	-1352
▁fuskanci	-1353
▁isasshen	-1354
▁kankanin	-1355
▁madatsun	-1356
▁shugaban	-1357
▁waɗannan	-1358
▁yawancin	-1359
▁ɗaukacin	-1360
▁gonakinsu	-1361
▁gudummawa	-1362
▁magunguna	-1363
▁ƙarƙashin	-1364
▁ingantaccen	-1365
▁shekarashekara	-1366
".	-1367
,2	-1368
."	-1369
20	-1370
An	-1371
Ga	-1372
Yo	-1373
Za	-1374
ct	-1375
es	-1376
ge	-1377
om	-1378
ru	-1379
▁l	-1380
Abu	-1381
Amf	-1382
Duk	-1383
Gon	-1384
Mai	-1385
Sai	-1386
Yan	-1387
bra	-1388
cce	-1389
cul	-1390
dam	-1391
den	-1392
faf	-1393
fai	-1394
fen	-1395
gor	-1396
ida	-1397
ine	-1398
ire	-1399
mai	-1400
mud	-1401
ole	-1402
sau	-1403
ssi	-1404
udu	-1405
uku	-1406
▁18	-1407
▁2:	-1408
▁30	-1409
▁3:	-1410
▁4:	-1411
▁Ah	-1412
▁La	-1413
▁ru	-1414
Daga	-1415
Kana	-1416
Kaso	-1417
adun	-1418
arfe	-1419
bara	-1420
bata	-1421
duna	-1422
gare	-1423
idan	-1424
ikin	-1425
iman	-1426
inis	-1427
kawa	-1428
kewa	-1429
mari	-1430
muwa	-1431
owar	-1432
tare	-1433
ukin	-1434
unin	-1435
uwar	-1436
ware	-1437
wari	-1438
yyar	-1439
▁Amf	-1440
▁Dam	-1441
▁Kai	-1442
▁Tin	-1443
▁abo	-1444
▁ala	-1445
▁ido	-1446
▁jer	-1447
▁taf	-1448
▁uku	-1449
▁ɓan	-1450
Gonar	-1451
Takin	-1452
antar	-1453
arren	-1454
ddada	-1455
fofin	-1456
huwar	-1457
jiyar	-1458
kalin	-1459
kunan	-1460
momin	-1461
sarin	-1462
sauye	-1463
sirin	-1464
tanta	-1465
tarki	-1466
ubuta	-1467
unawa	-1468
wabin	-1469
▁Masu	-1470
▁Rake	-1471
▁Soya	-1472
▁Umar	-1473
▁amba	-1474
▁bara	-1475
▁cuta	-1476
▁fata	-1477
▁fure	-1478
▁gari	-1479
▁guji	-1480
▁haya	-1481
▁jira	-1482
▁maka	-1483
▁mama	-1484
▁maza	-1485
▁nuni	-1486
▁riba	-1487
▁riji	-1488
▁rika	-1489
▁riƙa	-1490
▁tala	-1491
▁tsan	-1492
▁wanz	-1493
▁wuce	-1494
▁yada	-1495
▁yadu	-1496
▁ƙwar	-1497
Masana	-1498
arfesa	-1499
dancin	-1500
ddamar	-1501
taccen	-1502
tsatse	-1503
ttatta	-1504
▁Ahmed	-1505
▁Garba	-1506
▁Wayar	-1507
▁ajiye	-1508
▁binci	-1509
▁burin	-1510
▁cutar	-1511
▁dizel	-1512
▁gagar	-1513
▁ganya	-1514
▁ganye	-1515
▁girbe	-1516
▁gwiwa	-1517
▁hakar	-1518
▁hayar	-1519
▁jagor	-1520
▁koyar	-1521
▁kungi	-1522
▁sauye	-1523
▁share	-1524
▁shida	-1525
▁tatta	-1526
▁watan	-1527
▁wurin	-1528
▁wutar	-1529
Bincike	-1530
Sarrafa	-1531
▁Ramuka	-1532
▁Tinubu	-1533
▁abokan	-1534
▁aminci	-1535
▁asalin	-1536
▁bamban	-1537
▁ciniki	-1538
▁dorewa	-1539
▁filaye	-1540
▁fuskar	-1541
▁gabata	-1542
▁girman	-1543
▁jihohi	-1544
▁kadada	-1545
▁kamuwa	-1546
▁koguna	-1547
▁masani	-1548
▁nauyin	-1549
▁rabawa	-1550
▁ramuka	-1551
▁shanun	-1552
▁sukari	-1553
▁tashin	-1554
▁tsaron	-1555
▁tsohon	-1556
▁tumaki	-1557
▁wahala	-1558
▁zalika	-1559
▁zurfin	-1560
Tattalin	-1561
▁Farfesa	-1562
▁Sorghum	-1563
▁abubuwa	-1564
▁bisashe	-1565
▁fahimta	-1566
▁filayen	-1567
▁gajiyar	-1568
▁gurbata	-1569
▁halitta	-1570
▁hanyoyi	-1571
▁haɗakar	-1572
▁jaddada	-1573
▁jawabin	-1574
▁karfafa	-1575
▁magance	-1576
▁marmari	-1577
▁matuƙar	-1578
▁musayar	-1579
▁rungumi	-1580
▁shawara	-1581
▁tallafa	-1582
▁tallafi	-1583
▁tattare	-1584
▁warware	-1585
▁wayoyin	-1586
▁ƙasashe	-1587
▁ƙirƙire	-1588
Gwamnatin	-1589
▁Fabaceae	-1590
▁arewacin	-1591
▁binciken	-1592
▁kwatanta	-1593
▁kwayoyin	-1594
▁lantarki	-1595
▁littatta	-1596
▁rigakafi	-1597
▁sauransu	-1598
▁tambayar	-1599
▁ƙaddamar	-1600
▁ƙasashen	-1601
▁burtsatse	-1602
▁kayayyaki	-1603
▁makarantu	-1604
▁rijiyoyin	-1605
▁ƙwararren	-1606
▁gwamnatoci	-1607
▁sauyesauye	-1608
▁ingantacciyar	-1609
1.	-1610
5,	-1611
60	-1612
8,	-1613
AG	-1614
BC	-1615
IN	-1616
Ko	-1617
Yi	-1618
am	-1619
ch	-1620
ck	-1621
ex	-1622
gg	-1623
gs	-1624
he	-1625
ic	-1626
il	-1627
kk	-1628
lu	-1629
ni	-1630
od	-1631
pa	-1632
ry	-1633
th	-1634
ua	-1635
we	-1636
zo	-1637
zz	-1638
ƴa	-1639
ɓo	-1640
ɗi	-1641
▁7	-1642
00,	-1643
Bab	-1644
Ita	-1645
Kar	-1646
MIN	-1647
OMA	-1648
Sun	-1649
Tsa	-1650
bon	-1651
can	-1652
dia	-1653
ero	-1654
ery	-1655
exi	-1656
fan	-1657
gga	-1658
gri	-1659
ibi	-1660
ido	-1661
iri	-1662
jen	-1663
len	-1664
lti	-1665
mmi	-1666
nin	-1667
oni	-1668
ono	-1669
ose	-1670
own	-1671
rai	-1672
res	-1673
sin	-1674
tra	-1675
ume	-1676
zil	-1677
▁11	-1678
▁AK	-1679
▁Ch	-1680
▁Co	-1681
▁De	-1682
▁Ga	-1683
▁Gu	-1684
▁Ja	-1685
▁Ko	-1686
▁be	-1687
▁ge	-1688
▁un	-1689
▁zu	-1690
▁ɗi	-1691
Haka	-1692
Manu	-1693
Noma	-1694
Rake	-1695
Wuri	-1696
Your	-1697
aika	-1698
anar	-1699
anna	-1700
arsu	-1701
baka	-1702
bawa	-1703
cult	-1704
diga	-1705
enan	-1706
fafi	-1707
fasa	-1708
fita	-1709
gane	-1710
ikan	-1711
inin	-1712
inƙa	-1713
iyar	-1714
kiya	-1715
kkya	-1716
koma	-1717
kubu	-1718
kulo	-1719
kuna	-1720
lake	-1721
llah	-1722
mada	-1723
onth	-1724
tasa	-1725
toci	-1726
tubi	-1727
tuna	-1728
tutu	-1729
ukum	-1730
umbo	-1731
unci	-1732
unta	-1733
urin	-1734
wata	-1735
yada	-1736
zuzz	-1737
ƙuri	-1738
▁1,2	-1739
▁BBC	-1740
▁Bra	-1741
▁Kwa	-1742
▁Mai	-1743
▁RAG	-1744
▁bin	-1745
▁gas	-1746
▁ina	-1747
▁max	-1748
▁rum	-1749
▁soy	-1750
▁tan	-1751
▁wat	-1752
▁yar	-1753
▁ɗan	-1754
,000.	-1755
Farin	-1756
Hakar	-1757
Kamar	-1758
ansir	-1759
barai	-1760
dunan	-1761
etsar	-1762
exico	-1763
ggawa	-1764
ikipe	-1765
jarsu	-1766
karar	-1767
kilin	-1768
lamai	-1769
libin	-1770
lings	-1771
linsu	-1772
mmala	-1773
shuke	-1774
ssaka	-1775
tuwar	-1776
ugaba	-1777
yaran	-1778
yyaki	-1779
▁Dawa	-1780
▁Ibra	-1781
▁Insa	-1782
▁Kuma	-1783
▁NOMA	-1784
▁Nama	-1785
▁Okra	-1786
▁Sula	-1787
▁Tara	-1788
▁alka	-1789
▁aman	-1790
▁audu	-1791
▁baki	-1792
▁biya	-1793
▁dala	-1794
▁dara	-1795
▁dare	-1796
▁dubu	-1797
▁duka	-1798
▁fesa	-1799
▁fiye	-1800
▁gani	-1801
▁gero	-1802
▁gizo	-1803
▁guba	-1804
▁juna	-1805
▁kaco	-1806
▁kank	-1807
▁loku	-1808
▁lura	-1809
▁mako	-1810
▁mili	-1811
▁nika	-1812
▁rami	-1813
▁rike	-1814
▁roba	-1815
▁rogo	-1816
▁saba	-1817
▁sake	-1818
▁shar	-1819
▁soil	-1820
▁soki	-1821
▁tafi	-1822
▁tila	-1823
▁zaki	-1824
Amfani	-1825
Sannan	-1826
ankali	-1827
fidiya	-1828
himman	-1829
kaicin	-1830
mantar	-1831
mmacin	-1832
mmiyar	-1833
takewa	-1834
uruwan	-1835
wancin	-1836
▁Abuja	-1837
▁Aikin	-1838
▁Arewa	-1839
▁Chana	-1840
▁Citta	-1841
▁Gidan	-1842
▁Lawan	-1843
▁Malam	-1844
▁biyan	-1845
▁buhun	-1846
▁busar	-1847
▁bushe	-1848
▁culti	-1849
▁dabba	-1850
▁dinki	-1851
▁fatan	-1852
▁filin	-1853
▁furen	-1854
▁gidan	-1855
▁goyon	-1856
▁gumbo	-1857
▁gyada	-1858
▁hadin	-1859
▁horar	-1860
▁hoton	-1861
▁hukum	-1862
▁iyali	-1863
▁jerin	-1864
▁karka	-1865
▁kashi	-1866
▁kauri	-1867
▁kawar	-1868
▁kenan	-1869
▁lambu	-1870
▁launi	-1871
▁month	-1872
▁rabon	-1873
▁shuke	-1874
▁sukan	-1875
▁tsayi	-1876
▁wacce	-1877
▁waken	-1878
▁yanar	-1879
▁yanka	-1880
▁ƙarin	-1881
▁ɗauke	-1882
culture	-1883
kkyawan	-1884
suwanci	-1885
tututun	-1886
zuzzuka	-1887
▁Brazil	-1888
▁Ilimin	-1889
▁Mahmud	-1890
▁Matasa	-1891
▁Mexico	-1892
▁Wikipe	-1893
▁ayyana	-1894
▁dangin	-1895
▁danyen	-1896
▁fifita	-1897
▁gidaje	-1898
▁habaka	-1899
▁hayaki	-1900
▁iraren	-1901
▁iyalan	-1902
▁kanana	-1903
▁karbar	-1904
▁karfin	-1905
▁kiwata	-1906
▁kokari	-1907
▁koshin	-1908
▁kwarar	-1909
▁kwayar	-1910
▁lansir	-1911
▁madara	-1912
▁makoma	-1913
▁mamaye	-1914
▁matuƙa	-1915
▁rahusa	-1916
▁rubuta	-1917
▁sauƙin	-1918
▁shaida	-1919
▁shigar	-1920
▁tabbas	-1921
▁tafasa	-1922
▁tafiya	-1923
▁tarihi	-1924
▁tufafi	-1925
▁wancan	-1926
▁wanzar	-1927
▁ɗaukar	-1928
▁ɗaukin	-1929
▁ɗimbin	-1930
Abubuwan	-1931
▁Amfanin	-1932
▁Hausawa	-1933
▁Hukumar	-1934
▁Sarrafa	-1935
▁Sassaka	-1936
▁Tarayya	-1937
▁bangare	-1938
▁bayanin	-1939
▁biliyan	-1940
▁ciyawar	-1941
▁daminar	-1942
▁fadakar	-1943
▁fassara	-1944
▁fitarwa	-1945
▁fitowar	-1946
▁gaggawa	-1947
▁galibin	-1948
▁girmama	-1949
▁gwamnan	-1950
▁hajarsu	-1951
▁hanzari	-1952
▁harsuna	-1953
▁hukumar	-1954
▁kadadar	-1955
▁kafofin	-1956
▁kammala	-1957
▁karamin	-1958
▁karshen	-1959
▁karuwar	-1960
▁kiwonsu	-1961
▁kowanne	-1962
▁labarai	-1963
▁matakin	-1964
▁matsala	-1965
▁mazauna	-1966
▁shukawa	-1967
▁sunanka	-1968
▁talauci	-1969
▁tallata	-1970
▁tasirin	-1971
▁tsanani	-1972
▁tuntubi	-1973
▁yayyabe	-1974
▁Insakulo	-1975
▁Sulaiman	-1976
▁Yawancin	-1977
▁bambanci	-1978
▁harsunan	-1979
▁hukumomi	-1980
▁ilmantar	-1981
▁kalubale	-1982
▁kimiyyar	-1983
▁kudancin	-1984
▁lalacewa	-1985
▁shawarci	-1986
▁shekarun	-1987
▁taraktar	-1988
▁tsaftace	-1989
griculture	-1990
▁Wikipedia	-1991
▁butututun	-1992
▁dazuzzuka	-1993
▁garuruwan	-1994
▁ginshikan	-1995
▁gudanarwa	-1996
▁harshensu	-1997
▁kalubalen	-1998
▁kasancewa	-1999
▁kwanciyar	-2000
▁miliyoyin	-2001
▁rigakafin	-2002
▁sarrafawa	-2003
▁shinkafar	-2004
▁tallafawa	-2005
▁tsaretsar	-2006
▁ganyayyaki	-2007
▁harkokinsu	-2008
▁kyakkyawan	-2009
▁makamashin	-2010
▁manhajobin	-2011
▁muhimmiyar	-2012
▁shukeshuke	-2013
▁zirgazirga	-2014
▁littattafai	-2015
▁zamantakewa	-2016
▁shiryeshirye	-2017
▁shiryeshiryen	-2018
▁Insakulofidiya	-2019
,7	-2020
,9	-2021
..	-2022
.[	-2023
48	-2024
6.	-2025
AL	-2026
AM	-2027
Al	-2028
DA	-2029
In	-2030
Ir	-2031
SH	-2032
Su	-2033
WA	-2034
al	-2035
ca	-2036
ec	-2037
ep	-2038
ia	-2039
id	-2040
is	-2041
oa	-2042
qa	-2043
rs	-2044
ug	-2045
ui	-2046
ys	-2047
Ɗa	-2048
ɗe	-2049
ɗo	-2050
▁8	-2051
▁V	-2052
▁[	-2053
▁Ɗ	-2054
▁ƴ	-2055
▁–	-2056
00.	-2057
30.	-2058
50,	-2059
960	-2060
ADF	-2061
Aka	-2062
Dam	-2063
Dan	-2064
NOM	-2065
Pow	-2066
San	-2067
ars	-2068
asa	-2069
bbo	-2070
ber	-2071
cke	-2072
der	-2073
dge	-2074
dir	-2075
dra	-2076
edi	-2077
eek	-2078
ega	-2079
eir	-2080
era	-2081
eth	-2082
ets	-2083
fla	-2084
for	-2085
gbe	-2086
gus	-2087
hau	-2088
ing	-2089
kpa	-2090
kun	-2091
les	-2092
llo	-2093
lor	-2094
mbo	-2095
mun	-2096
nar	-2097
ogo	-2098
oke	-2099
ola	-2100
onv	-2101
ood	-2102
ora	-2103
pea	-2104
plo	-2105
rea	-2106
rip	-2107
sta	-2108
suf	-2109
ten	-2110
ton	-2111
tro	-2112
tso	-2113
tur	-2114
uha	-2115
uro	-2116
urs	-2117
utf	-2118
ves	-2119
wwa	-2120
ɓin	-2121
ɓɓa	-2122
▁1.	-2123
▁10	-2124
▁12	-2125
▁16	-2126
▁17	-2127
▁2.	-2128
▁25	-2129
▁Bi	-2130
▁Dr	-2131
▁Ir	-2132
▁Ku	-2133
▁Si	-2134
▁To	-2135
▁Ur	-2136
▁Yu	-2137
▁as	-2138
▁du	-2139
▁ft	-2140
▁le	-2141
▁nu	-2142
▁zo	-2143
,720	-2144
,930	-2145
Amma	-2146
Baya	-2147
Irin	-2148
Kiwo	-2149
MINA	-2150
Mata	-2151
Suna	-2152
Wane	-2153
alla	-2154
anci	-2155
anol	-2156
aras	-2157
arka	-2158
arke	-2159
bbas	-2160
biya	-2161
buna	-2162
ctro	-2163
dabi	-2164
dako	-2165
dare	-2166
desh	-2167
eeks	-2168
egas	-2169
ekun	-2170
faɗo	-2171
ffin	-2172
furi	-2173
gili	-2174
guwa	-2175
gwan	-2176
haji	-2177
hara	-2178
hase	-2179
huri	-2180
huwa	-2181
inea	-2182
ined	-2183
inta	-2184
jali	-2185
joji	-2186
koki	-2187
kono	-2188
koso	-2189
lyte	-2190
mace	-2191
mame	-2192
mata	-2193
mbun	-2194
mina	-2195
mshi	-2196
oses	-2197
riga	-2198
rika	-2199
sari	-2200
seed	-2201
tifi	-2202
tock	-2203
umin	-2204
undu	-2205
urai	-2206
urar	-2207
urra	-2208
ushi	-2209
uyin	-2210
vars	-2211
wada	-2212
wake	-2213
wang	-2214
wayi	-2215
well	-2216
wuwa	-2217
zara	-2218
Ɗaya	-2219
ɓewa	-2220
ɗano	-2221
▁150	-2222
▁180	-2223
▁20,	-2224
▁AKE	-2225
▁Alh	-2226
▁Bri	-2227
▁Bun	-2228
▁Duk	-2229
▁Isa	-2230
▁PAN	-2231
▁Pra	-2232
▁Sai	-2233
▁Tll	-2234
▁Tsa	-2235
▁ani	-2236
▁aru	-2237
▁cun	-2238
▁ele	-2239
▁eth	-2240
▁ham	-2241
▁jar	-2242
▁kak	-2243
▁met	-2244
▁min	-2245
▁the	-2246
▁zan	-2247
▁zum	-2248
▁Ɗan	-2249
▁ƙun	-2250
▁ɗor	-2251
Adana	-2252
Allah	-2253
Dafaf	-2254
Garba	-2255
Minis	-2256
NOMAN	-2257
Power	-2258
Yayin	-2259
anium	-2260
anoni	-2261
aunin	-2262
btace	-2263
btaka	-2264
buwar	-2265
canta	-2266
ckers	-2267
darai	-2268
eiren	-2269
fanun	-2270
fukan	-2271
furin	-2272
gbebe	-2273
gwani	-2274
halar	-2275
halun	-2276
haren	-2277
irgar	-2278
itaci	-2279
itata	-2280
iyasa	-2281
kitan	-2282
kuwar	-2283
libai	-2284
lilan	-2285
liyar	-2286
luman	-2287
minti	-2288
noman	-2289
oleae	-2290
ploid	-2291
rewar	-2292
shawa	-2293
ssium	-2294
tabar	-2295
tanen	-2296
uciya	-2297
unuka	-2298
urawa	-2299
uraya	-2300
vanna	-2301
warin	-2302
wwama	-2303
zaman	-2304
ɓɓasa	-2305
▁Adam	-2306
▁Bola	-2307
▁Cibi	-2308
▁Ciya	-2309
▁Fara	-2310
▁Gaba	-2311
▁Inji	-2312
▁Kano	-2313
▁Kiyo	-2314
▁Rogo	-2315
▁Sani	-2316
▁Shan	-2317
▁Soja	-2318
▁Yawa	-2319
▁Zuba	-2320
▁abun	-2321
▁adda	-2322
▁amso	-2323
▁bare	-2324
▁bata	-2325
▁bazu	-2326
▁bean	-2327
▁bita	-2328
▁bude	-2329
▁ciwo	-2330
▁doki	-2331
▁dole	-2332
▁gare	-2333
▁gasa	-2334
▁gaza	-2335
▁gefe	-2336
▁gobe	-2337
▁guje	-2338
▁gura	-2339
▁hala	-2340
▁hare	-2341
▁hudu	-2342
▁ikir	-2343
▁illa	-2344
▁kaho	-2345
▁kana	-2346
▁kaso	-2347
▁kilo	-2348
▁kima	-2349
▁kira	-2350
▁kofi	-2351
▁kora	-2352
▁kore	-2353
▁kudu	-2354
▁kwai	-2355
▁kwas	-2356
▁lita	-2357
▁mara	-2358
▁mats	-2359
▁miya	-2360
▁moto	-2361
▁nama	-2362
▁nasa	-2363
▁nawa	-2364
▁nemi	-2365
▁nesa	-2366
▁nisa	-2367
▁nono	-2368
▁okra	-2369
▁pota	-2370
▁rabo	-2371
▁riki	-2372
▁siye	-2373
▁tuni	-2374
▁umar	-2375
▁wuya	-2376
▁yayi	-2377
▁yaƙi	-2378
▁zata	-2379
▁Ƙasa	-2380
▁ƙwan	-2381
▁ɗuma	-2382
Babban	-2383
Ilimin	-2384
Shirya	-2385
allaka	-2386
arraya	-2387
barkar	-2388
cation	-2389
danawa	-2390
etsire	-2391
garori	-2392
haushe	-2393
idojin	-2394
imakin	-2395
inkafa	-2396
kamata	-2397
kiyaya	-2398
mbundu	-2399
misali	-2400
mishin	-2401
sanshi	-2402
trogen	-2403
uhawar	-2404
uranci	-2405
urorin	-2406
ursery	-2407
▁2,930	-2408
▁2030.	-2409
▁Alake	-2410
▁Dakta	-2411
▁Irare	-2412
▁Kajin	-2413
▁Kasar	-2414
▁Kungi	-2415
▁Legas	-2416
▁Minis	-2417
▁Naman	-2418
▁Phase	-2419
▁Ruwan	-2420
▁Shanu	-2421
▁Shuka	-2422
▁Sukar	-2423
▁Turai	-2424
▁Yusuf	-2425
▁agogo	-2426
▁amsar	-2427
▁awaki	-2428
▁baiwa	-2429
▁barin	-2430
▁basir	-2431
▁cikas	-2432
▁dauke	-2433
▁dokar	-2434
▁fanni	-2435
▁farga	-2436
▁farin	-2437
▁fatun	-2438
▁gabas	-2439
▁gundu	-2440
▁hanci	-2441
▁idanu	-2442
▁illar	-2443
▁itace	-2444
▁iyaye	-2445
▁janyo	-2446
▁kahon	-2447
▁kaiwa	-2448
▁kajin	-2449
▁karas	-2450
▁karon	-2451
▁kiown	-2452
▁koren	-2453
▁kukan	-2454
▁kwana	-2455
▁litar	-2456
▁lives	-2457
▁maima	-2458
▁maite	-2459
▁makon	-2460
▁makwa	-2461
▁narke	-2462
▁nasar	-2463
▁nauyi	-2464
▁nufin	-2465
▁rabar	-2466
▁rashi	-2467
▁rawar	-2468
▁rinƙa	-2469
▁sakan	-2470
▁saman	-2471
▁sauke	-2472
▁sauko	-2473
▁sauri	-2474
▁sauro	-2475
▁sauya	-2476
▁sauyi	-2477
▁shine	-2478
▁tarin	-2479
▁tarur	-2480
▁tashi	-2481
▁tekun	-2482
▁tsaba	-2483
▁tsada	-2484
▁tsawo	-2485
▁tsiro	-2486
▁wahal	-2487
▁watau	-2488
▁weeks	-2489
▁yamma	-2490
▁yanke	-2491
▁yunwa	-2492
▁zarar	-2493
▁ƴaƴan	-2494
Gwamnat	-2495
Manufar	-2496
Rayuwar	-2497
Sorghum	-2498
aikatun	-2499
anancin	-2500
anninsu	-2501
arabawa	-2502
drained	-2503
gilishi	-2504
halarta	-2505
huriyar	-2506
jalisar	-2507
tuttuka	-2508
uhimman	-2509
utfwang	-2510
▁11,720	-2511
▁Afrika	-2512
▁Alhaji	-2513
▁Bankin	-2514
▁Bridge	-2515
▁DAMINA	-2516
▁Egbebe	-2517
▁Gitata	-2518
▁Indiya	-2519
▁Kaduna	-2520
▁Kariya	-2521
▁Lansir	-2522
▁Masara	-2523
▁Sannan	-2524
▁Tllers	-2525
▁Yakubu	-2526
▁Yanayi	-2527
▁abinda	-2528
▁akalla	-2529
▁aminta	-2530
▁asarar	-2531
▁birnin	-2532
▁bukaci	-2533
▁buƙaci	-2534
▁dabaru	-2535
▁dacewa	-2536
▁dimbin	-2537
▁gawayi	-2538
▁gonaki	-2539
▁gwamna	-2540
▁gwiwar	-2541
▁gyaran	-2542
▁hadaka	-2543
▁hamada	-2544
▁harshe	-2545
▁haƙuri	-2546
▁irriga	-2547
▁iyalai	-2548
▁iyayen	-2549
▁jinsin	-2550
▁kacoka	-2551
▁kariya	-2552
▁kundin	-2553
▁kunshi	-2554
▁ladabi	-2555
▁launin	-2556
▁laushi	-2557
▁magani	-2558
▁matuka	-2559
▁metres	-2560
▁raguna	-2561
▁rancen	-2562
▁rawaya	-2563
▁ruɓewa	-2564
▁sharar	-2565
▁sharhi	-2566
▁sitaci	-2567
▁siyasa	-2568
▁soyawa	-2569
▁sufuri	-2570
▁tamkar	-2571
▁tituna	-2572
▁tsayin	-2573
▁tunini	-2574
▁wajibi	-2575
▁yiwuwa	-2576
▁zuciya	-2577
▁ƙarfin	-2578
▁ƙoƙari	-2579
▁ɗorewa	-2580
Dafaffar	-2581
Shugaban	-2582
barkatun	-2583
ctrolyte	-2584
mishinan	-2585
suwancin	-2586
▁Adanawa	-2587
▁Fabales	-2588
▁Ibrahim	-2589
▁Malamai	-2590
▁Pradesh	-2591
▁Shugaba	-2592
▁Uranium	-2593
▁alfanun	-2594
▁amannar	-2595
▁ambaton	-2596
▁audugar	-2597
▁barkono	-2598
▁bindiga	-2599
▁cunkoso	-2600
▁dawwama	-2601
▁dorewar	-2602
▁duniyar	-2603
▁ethanol	-2604
▁fahimci	-2605
▁farfaɗo	-2606
▁gauraya	-2607
▁gonarsu	-2608
▁guraben	-2609
▁haihuwa	-2610
▁huɓɓasa	-2611
▁injinan	-2612
▁ireiren	-2613
▁jigilar	-2614
▁kankani	-2615
▁karanta	-2616
▁karbuwa	-2617
▁kuzarin	-2618
▁kwamame	-2619
▁lamunci	-2620
▁likitan	-2621
▁lokutan	-2622
▁maganin	-2623
▁mandako	-2624
▁masarar	-2625
▁mutanen	-2626
▁rashawa	-2627
▁rumbuna	-2628
▁sabuwar	-2629
▁sassaka	-2630
▁siminti	-2631
▁tabbata	-2632
▁tafiyar	-2633
▁tafkuna	-2634
▁tambaya	-2635
▁tarbiya	-2636
▁tarihin	-2637
▁tarraya	-2638
▁tilasta	-2639
▁tsaftar	-2640
▁tsoffin	-2641
▁tumatir	-2642
▁tumatur	-2643
▁turanci	-2644
▁wahalar	-2645
▁watanni	-2646
▁yaduwar	-2647
▁yayyafa	-2648
▁zamanin	-2649
▁ƙaramar	-2650
▁ƙirƙiri	-2651
▁ƙirƙiro	-2652
▁ɗanɗano	-2653
▁ɗumamar	-2654
Sakamakon	-2655
▁Arewacin	-2656
▁Bahaushe	-2657
▁Shinkafa	-2658
▁Shugaban	-2659
▁Wadannan	-2660
▁Yammacin	-2661
▁albarkar	-2662
▁bankunan	-2663
▁cancanta	-2664
▁dankalin	-2665
▁darussan	-2666
▁gabashin	-2667
▁ginshiki	-2668
▁gundumar	-2669
▁gwammace	-2670
▁haihuwar	-2671
▁hauhawar	-2672
▁ikirarin	-2673
▁ingancin	-2674
▁iyalansu	-2675
▁kalmomin	-2676
▁kwanduna	-2677
▁kwararru	-2678
▁makomako	-2679
▁martabar	-2680
▁nitrogen	-2681
▁samfurin	-2682
▁sasanshi	-2683
▁shafukan	-2684
▁shaidawa	-2685
▁shawarar	-2686
▁shekarar	-2687
▁shiryawa	-2688
▁tabbacin	-2689
▁tsakiyar	-2690
▁tsaunuka	-2691
▁tunkarar	-2692
▁yakamata	-2693
▁ƙarancin	-2694
▁Ingilishi	-2695
▁Kasuwanci	-2696
▁ambaliyar	-2697
▁ayyukanta	-2698
▁cultivars	-2699
▁filayensu	-2700
▁gagarumar	-2701
▁gagarumin	-2702
▁girmamawa	-2703
▁gurbatawa	-2704
▁gwangwani	-2705
▁hareharen	-2706
▁jawabinsa	-2707
▁karkashin	-2708
▁kungiyoyi	-2709
▁kwandunan	-2710
▁kwangilar	-2711
▁lafiyarsu	-2712
▁lalacewar	-2713
▁livestock	-2714
▁mahalarta	-2715
▁makamashi	-2716
▁manhajobi	-2717
▁sakandare	-2718
▁sinadarai	-2719
welldrained	-2720
▁Albarkatun	-2721
▁Kungiyoyin	-2722
▁Phaseoleae	-2723
▁bishiyoyin	-2724
▁irrigation	-2725
▁kasancewar	-2726
▁kasuwancin	-2727
▁kungiyoyin	-2728
▁makarantun	-2729
▁muhallinsu	-2730
▁shawarwari	-2731
▁tattaunawa	-2732
▁tsaretsare	-2733
▁tsiretsire	-2734
▁wahalhalun	-2735
▁zamanantar	-2736
▁agriculture	-2737
▁electrolyte	-2738
▁matsakaicin	-2739
▁matsanancin	-2740
▁zirgazirgar	-2741
▁tsaftataccen	-2742
):	-2743
,3	-2744
,8	-2745
,?	-2746
,“	-2747
.,	-2748
.0	-2749
.1	-2750
.9	-2751
.?	-2752
/)	-2753
/ˈ	-2754
03	-2755
04	-2756
13	-2757
16	-2758
17	-2759
18	-2760
23	-2761
3.	-2762
4.	-2763
59	-2764
8.	-2765
AK	-2766
AY	-2767
Ap	-2768
BS	-2769
BU	-2770
CC	-2771
Co	-2772
ES	-2773
Eh	-2774
Fa	-2775
IK	-2776
IL	-2777
IW	-2778
KA	-2779
KO	-2780
Ku	-2781
LP	-2782
MS	-2783
Mi	-2784
Mo	-2785
Ne	-2786
Ni	-2787
ON	-2788
Or	-2789
RI	-2790
Ri	-2791
SS	-2792
Ts	-2793
Tu	-2794
UF	-2795
Ze	-2796
ap	-2797
bs	-2798
cc	-2799
cu	-2800
dh	-2801
ds	-2802
eb	-2803
ef	-2804
em	-2805
ew	-2806
ft	-2807
ig	-2808
kn	-2809
ks	-2810
lp	-2811
mn	-2812
mp	-2813
ob	-2814
ol	-2815
os	-2816
pi	-2817
po	-2818
rɡ	-2819
sɔ	-2820
ty	-2821
ud	-2822
ve	-2823
ša	-2824
ƙo	-2825
ƙu	-2826
əm	-2827
دس	-2828
▁.	-2829
▁5	-2830
▁O	-2831
▁Q	-2832
▁`	-2833
▁Ɓ	-2834
▁’	-2835
...	-2836
.0:	-2837
.[1	-2838
040	-2839
160	-2840
248	-2841
58,	-2842
600	-2843
7.9	-2844
81.	-2845
86.	-2846
917	-2847
?".	-2848
ABB	-2849
ABU	-2850
AMO	-2851
ANI	-2852
ANY	-2853
AYY	-2854
Ala	-2855
BUW	-2856
Bun	-2857
Gan	-2858
Gar	-2859
Gen	-2860
Gra	-2861
HAL	-2862
HAR	-2863
Hai	-2864
Han	-2865
ILI	-2866
IWO	-2867
Idi	-2868
Jam	-2869
KAD	-2870
Kai	-2871
Kus	-2872
Kwa	-2873
LPR	-2874
MSA	-2875
Mah	-2876
Man	-2877
Men	-2878
Mer	-2879
Moi	-2880
Mun	-2881
NBS	-2882
Nor	-2883
PAN	-2884
SAL	-2885
SDA	-2886
Sab	-2887
Sci	-2888
Tam	-2889
Tri	-2890
Tun	-2891
Wan	-2892
Waɗ	-2893
YAD	-2894
You	-2895
Zea	-2896
ada	-2897
adu	-2898
aik	-2899
ale	-2900
ali	-2901
ami	-2902
amy	-2903
awa	-2904
azi	-2905
aƴa	-2906
bdu	-2907
bel	-2908
bia	-2909
bid	-2910
bir	-2911
bka	-2912
bsp	-2913
cco	-2914
cer	-2915
cit	-2916
cks	-2917
cle	-2918
cor	-2919
cow	-2920
dad	-2921
ddu	-2922
des	-2923
did	-2924
dom	-2925
dry	-2926
eed	-2927
eff	-2928
elp	-2929
ema	-2930
ere	-2931
ert	-2932
ffi	-2933
fti	-2934
ftu	-2935
ggõ	-2936
gua	-2937
gun	-2938
ham	-2939
hee	-2940
hia	-2941
huk	-2942
ice	-2943
ide	-2944
igh	-2945
iku	-2946
irg	-2947
iro	-2948
isp	-2949
ito	-2950
iwa	-2951
jah	-2952
jia	-2953
jja	-2954
jui	-2955
kil	-2956
lZa	-2957
lek	-2958
lia	-2959
liv	-2960
lka	-2961
lle	-2962
lma	-2963
lom	-2964
lsa	-2965
mal	-2966
men	-2967
mes	-2968
mil	-2969
moi	-2970
mos	-2971
mus	-2972
nen	-2973
oba	-2974
odw	-2975
omm	-2976
ope	-2977
oro	-2978
oui	-2979
pan	-2980
pin	-2981
ral	-2982
rfa	-2983
rit	-2984
rop	-2985
rup	-2986
sah	-2987
sun	-2988
tae	-2989
taf	-2990
tel	-2991
tem	-2992
tic	-2993
tii	-2994
tin	-2995
tor	-2996
try	-2997
tti	-2998
tus	-2999
uah	-3000
ufa	-3001
ufi	-3002
ugu	-3003
uic	-3004
ukh	-3005
umo	-3006
urp	-3007
uru	-3008
usi	-3009
uso	-3010
uth	-3011
uya	-3012
von	-3013
wal	-3014
wed	-3015
wun	-3016
zed	-3017
zon	-3018
zun	-3019
zza	-3020
ƁRI	-3021
ƙon	-3022
ƙwa	-3023
ɓar	-3024
ندس	-3025
▁27	-3026
▁33	-3027
▁40	-3028
▁5,	-3029
▁50	-3030
▁60	-3031
▁67	-3032
▁8,	-3033
▁80	-3034
▁As	-3035
▁At	-3036
▁Bu	-3037
▁Cu	-3038
▁Di	-3039
▁Do	-3040
▁KA	-3041
▁Ke	-3042
▁Mi	-3043
▁Mo	-3044
▁TA	-3045
▁Th	-3046
▁Ti	-3047
▁Tu	-3048
▁Yi	-3049
▁af	-3050
▁ay	-3051
▁ex	-3052
▁me	-3053
▁mo	-3054
▁no	-3055
▁oc	-3056
▁sy	-3057
▁ts	-3058
▁ƴa	-3059
,200	-3060
,800	-3061
.14.	-3062
008,	-3063
20),	-3064
ADAR	-3065
AKAR	-3066
ANUF	-3067
Abin	-3068
Alka	-3069
Appe	-3070
BABB	-3071
CCAM	-3072
Cibi	-3073
Cire	-3074
Damm	-3075
Dasa	-3076
Dawa	-3077
Dole	-3078
Duba	-3079
Dura	-3080
ENKA	-3081
Gali	-3082
Gene	-3083
Gwam	-3084
IKKO	-3085
Ibra	-3086
Ikpa	-3087
Kano	-3088
Kare	-3089
Kimi	-3090
King	-3091
Kube	-3092
Kuma	-3093
Kwan	-3094
Liki	-3095
Masu	-3096
Merr	-3097
Muna	-3098
NADF	-3099
Naba	-3100
Nati	-3101
Neon	-3102
Rene	-3103
SHEN	-3104
Said	-3105
Samf	-3106
Shin	-3107
Tari	-3108
Tsaf	-3109
Tsor	-3110
Tuwo	-3111
Wata	-3112
Wato	-3113
Yalo	-3114
Yana	-3115
Zuba	-3116
ador	-3117
akin	-3118
alci	-3119
aleb	-3120
ance	-3121
anes	-3122
ania	-3123
anne	-3124
annu	-3125
apua	-3126
arat	-3127
aris	-3128
arna	-3129
arum	-3130
atsa	-3131
awar	-3132
basu	-3133
bdul	-3134
bera	-3135
berc	-3136
beri	-3137
beta	-3138
bgen	-3139
bobi	-3140
btar	-3141
buta	-3142
ceba	-3143
cens	-3144
cher	-3145
chus	-3146
cial	-3147
ciya	-3148
conv	-3149
corn	-3150
dari	-3151
dawa	-3152
deen	-3153
delp	-3154
ders	-3155
dhra	-3156
dhya	-3157
diyo	-3158
doji	-3159
dole	-3160
drip	-3161
econ	-3162
elta	-3163
ewar	-3164
fata	-3165
faye	-3166
fayi	-3167
fida	-3168
fije	-3169
fiye	-3170
fofi	-3171
fted	-3172
funa	-3173
futu	-3174
gari	-3175
gaye	-3176
gima	-3177
gren	-3178
gume	-3179
gumi	-3180
hael	-3181
haka	-3182
hari	-3183
hiji	-3184
hila	-3185
hima	-3186
hiri	-3187
hitu	-3188
ichi	-3189
igna	-3190
ingo	-3191
inia	-3192
insu	-3193
irai	-3194
irin	-3195
ishe	-3196
jina	-3197
juma	-3198
kabi	-3199
kake	-3200
kali	-3201
kana	-3202
kile	-3203
king	-3204
kiri	-3205
kuka	-3206
kuli	-3207
kuma	-3208
kume	-3209
kwas	-3210
lila	-3211
llai	-3212
llar	-3213
llon	-3214
llow	-3215
loli	-3216
lopo	-3217
lsas	-3218
luba	-3219
luɓo	-3220
lwar	-3221
maka	-3222
mare	-3223
mary	-3224
mers	-3225
ming	-3226
minu	-3227
moud	-3228
msar	-3229
nesi	-3230
neus	-3231
ocin	-3232
omas	-3233
omin	-3234
ompa	-3235
onal	-3236
ondi	-3237
onon	-3238
oras	-3239
peci	-3240
ress	-3241
room	-3242
ruka	-3243
rɡəm	-3244
saha	-3245
saro	-3246
sata	-3247
sibi	-3248
siri	-3249
sive	-3250
skan	-3251
sowa	-3252
soya	-3253
spea	-3254
ssis	-3255
star	-3256
suka	-3257
taka	-3258
take	-3259
tama	-3260
tand	-3261
tant	-3262
tata	-3263
tawa	-3264
taya	-3265
taƙi	-3266
tena	-3267
ties	-3268
tika	-3269
tsar	-3270
tsin	-3271
ttar	-3272
tuka	-3273
ucin	-3274
ufar	-3275
ugab	-3276
ukan	-3277
ukuk	-3278
ullo	-3279
umfa	-3280
unit	-3281
urku	-3282
uron	-3283
urƙu	-3284
waka	-3285
wale	-3286
waye	-3287
weet	-3288
woyi	-3289
yaje	-3290
yarz	-3291
yawa	-3292
yaya	-3293
ydin	-3294
yeta	-3295
zama	-3296
zƙin	-3297
ƙile	-3298
ƙire	-3299
ƙiƙa	-3300
ƙuro	-3301
ɗari	-3302
ɗaya	-3303
ɗaɗe	-3304
ɗuwa	-3305
▁(/ˈ	-3306
▁(13	-3307
▁(20	-3308
▁1,3	-3309
▁18.	-3310
▁2.4	-3311
▁25:	-3312
▁300	-3313
▁400	-3314
▁500	-3315
▁623	-3316
▁AKA	-3317
▁Aus	-3318
▁Cin	-3319
▁Cre	-3320
▁DSS	-3321
▁Dan	-3322
▁Dun	-3323
▁Ecu	-3324
▁Fol	-3325
▁Ful	-3326
▁Goa	-3327
▁Guj	-3328
▁Hai	-3329
▁Ido	-3330
▁Jos	-3331
▁Kor	-3332
▁Mas	-3333
▁Mic	-3334
▁New	-3335
▁Oka	-3336
▁Poa	-3337
▁Rum	-3338
▁San	-3339
▁Sec	-3340
▁Sin	-3341
▁Sun	-3342
▁Sur	-3343
▁TRT	-3344
▁Tso	-3345
▁Uma	-3346
▁Waɗ	-3347
▁Zai	-3348
▁Zan	-3349
▁Zin	-3350
▁aba	-3351
▁aci	-3352
▁aga	-3353
▁alA	-3354
▁all	-3355
▁ama	-3356
▁ann	-3357
▁aro	-3358
▁asu	-3359
▁ayi	-3360
▁bel	-3361
▁cla	-3362
▁cob	-3363
▁con	-3364
▁dam	-3365
▁egg	-3366
▁eka	-3367
▁gwa	-3368
▁hat	-3369
▁hir	-3370
▁hot	-3371
▁hus	-3372
▁ila	-3373
▁imp	-3374
▁ish	-3375
▁iso	-3376
▁iša	-3377
▁jam	-3378
▁jir	-3379
▁kof	-3380
▁kog	-3381
▁mad	-3382
▁mas	-3383
▁mun	-3384
▁oda	-3385
▁pri	-3386
▁rai	-3387
▁sar	-3388
▁saɓ	-3389
▁sem	-3390
▁shu	-3391
▁stu	-3392
▁sys	-3393
▁taz	-3394
▁teb	-3395
▁ton	-3396
▁tra	-3397
▁tur	-3398
▁ung	-3399
▁uwa	-3400
▁wad	-3401
▁zar	-3402
▁Ɓom	-3403
▁Ƙar	-3404
▁ƙaƙ	-3405
▁ƙug	-3406
.0:03	-3407
50,00	-3408
96059	-3409
ANYAR	-3410
Akara	-3411
Akwai	-3412
Alake	-3413
BUWAN	-3414
Bayan	-3415
Baƙin	-3416
Color	-3417
Dangi	-3418
Dikko	-3419
Genus	-3420
Gyara	-3421
Hadar	-3422
Hakan	-3423
Halin	-3424
Hoton	-3425
Kadan	-3426
Kafin	-3427
Karas	-3428
Kashi	-3429
Kusan	-3430
Kwari	-3431
LPRES	-3432
Maiha	-3433
Moses	-3434
Order	-3435
Raɗɗa	-3436
Ruwan	-3437
SALON	-3438
Scien	-3439
Shitu	-3440
Sugar	-3441
Sukar	-3442
Tamba	-3443
Tatta	-3444
Tribe	-3445
Waina	-3446
YADDA	-3447
Yanda	-3448
Yanzu	-3449
Yawan	-3450
Zaben	-3451
Zaɓin	-3452
adana	-3453
amita	-3454
anadi	-3455
anata	-3456
aradi	-3457
araji	-3458
arash	-3459
areta	-3460
banci	-3461
baran	-3462
basar	-3463
basha	-3464
bbobi	-3465
bince	-3466
binta	-3467
bunch	-3468
cchar	-3469
ccoci	-3470
cewar	-3471
color	-3472
daden	-3473
dayen	-3474
dejia	-3475
dents	-3476
dirai	-3477
dirin	-3478
diyar	-3479
duwar	-3480
ediyo	-3481
epers	-3482
erala	-3483
erson	-3484
farar	-3485
flaks	-3486
forma	-3487
ftila	-3488
gaban	-3489
ganin	-3490
gence	-3491
gguru	-3492
guage	-3493
hakin	-3494
hukun	-3495
hunan	-3496
iakai	-3497
idodi	-3498
iname	-3499
inger	-3500
iraza	-3501
istar	-3502
jensu	-3503
jingi	-3504
jinsi	-3505
juice	-3506
kamar	-3507
kansu	-3508
karas	-3509
kasan	-3510
kashi	-3511
kassa	-3512
keken	-3513
kewar	-3514
kilce	-3515
kiyar	-3516
known	-3517
lanke	-3518
loamy	-3519
madar	-3520
maima	-3521
mance	-3522
mared	-3523
marin	-3524
mente	-3525
mesti	-3526
mijin	-3527
minar	-3528
mmaki	-3529
mmamn	-3530
mmani	-3531
muwar	-3532
nensu	-3533
odwin	-3534
orawa	-3535
ouisi	-3536
pindi	-3537
rajen	-3538
rukan	-3539
salai	-3540
shaye	-3541
shewa	-3542
shiri	-3543
shuwa	-3544
ssafi	-3545
ssifi	-3546
stard	-3547
talai	-3548
tange	-3549
tansu	-3550
tarsa	-3551
tarwa	-3552
telli	-3553
tific	-3554
tocin	-3555
tract	-3556
tsaba	-3557
tsiro	-3558
tunta	-3559
ulata	-3560
ummai	-3561
ummar	-3562
unana	-3563
uncil	-3564
untry	-3565
uradi	-3566
urity	-3567
vones	-3568
waini	-3569
wanar	-3570
warka	-3571
wawan	-3572
wayen	-3573
yanci	-3574
yanda	-3575
yansu	-3576
yarta	-3577
yarwa	-3578
yukan	-3579
yyata	-3580
yyawa	-3581
zamai	-3582
zanar	-3583
Ƙungi	-3584
ƙaice	-3585
ƙolin	-3586
ɗakar	-3587
ɗaɗan	-3588
▁(7.9	-3589
▁1.1.	-3590
▁1.8.	-3591
▁1216	-3592
▁1748	-3593
▁1917	-3594
▁1960	-3595
▁2024	-3596
▁6000	-3597
▁7000	-3598
▁7600	-3599
▁8000	-3600
▁900,	-3601
▁900.	-3602
▁AMSA	-3603
▁Abel	-3604
▁Agus	-3605
▁Akan	-3606
▁Amma	-3607
▁Ayyu	-3608
▁Bank	-3609
▁Bugu	-3610
▁Bura	-3611
▁Daga	-3612
▁Daya	-3613
▁Deep	-3614
▁Dele	-3615
▁ElZa	-3616
▁Erit	-3617
▁Food	-3618
▁Gari	-3619
▁Gina	-3620
▁Guda	-3621
▁Gwan	-3622
▁Hisp	-3623
▁Hope	-3624
▁Idan	-3625
▁Ijah	-3626
▁Ikpa	-3627
▁Jama	-3628
▁Jami	-3629
▁Jeff	-3630
▁KIWO	-3631
▁Kudu	-3632
▁Kula	-3633
▁Kura	-3634
▁Lere	-3635
▁Mayu	-3636
▁Mukh	-3637
▁NADF	-3638
▁Nadu	-3639
▁NƁRI	-3640
▁Plan	-3641
▁Pota	-3642
▁RANI	-3643
▁Raba	-3644
▁Rana	-3645
▁Ruga	-3646
▁Rung	-3647
▁SAMO	-3648
▁Sana	-3649
▁Seed	-3650
▁Suga	-3651
▁Suna	-3652
▁Suya	-3653
▁Tire	-3654
▁USDA	-3655
▁Virg	-3656
▁Wani	-3657
▁Wuya	-3658
▁Yalo	-3659
▁Zabi	-3660
▁anna	-3661
▁arba	-3662
▁arha	-3663
▁asha	-3664
▁aska	-3665
▁aure	-3666
▁bace	-3667
▁bala	-3668
▁bari	-3669
▁basu	-3670
▁bayi	-3671
▁buga	-3672
▁cike	-3673
▁ciro	-3674
▁comm	-3675
▁crea	-3676
▁crop	-3677
▁dabi	-3678
▁dari	-3679
▁data	-3680
▁daɗe	-3681
▁drip	-3682
▁duke	-3683
▁duki	-3684
▁dumi	-3685
▁duƙe	-3686
▁fann	-3687
▁fatu	-3688
▁faɗa	-3689
▁faɗi	-3690
▁fira	-3691
▁fita	-3692
▁food	-3693
▁fura	-3694
▁gada	-3695
▁gamo	-3696
▁gane	-3697
▁gibi	-3698
▁goma	-3699
▁guri	-3700
▁hade	-3701
▁haki	-3702
▁haro	-3703
▁hasa	-3704
▁hawa	-3705
▁help	-3706
▁hide	-3707
▁horo	-3708
▁huce	-3709
▁huda	-3710
▁hutu	-3711
▁huɗa	-3712
▁itta	-3713
▁iƙir	-3714
▁jere	-3715
▁jiha	-3716
▁jima	-3717
▁kadi	-3718
▁kaia	-3719
▁kaka	-3720
▁kake	-3721
▁kamf	-3722
▁kapi	-3723
▁karu	-3724
▁kogi	-3725
▁komi	-3726
▁koyi	-3727
▁kuli	-3728
▁kuɗi	-3729
▁kyan	-3730
▁lale	-3731
▁loda	-3732
▁mace	-3733
▁maji	-3734
▁mana	-3735
▁maye	-3736
▁mays	-3737
▁milo	-3738
▁mori	-3739
▁mudu	-3740
▁muka	-3741
▁muke	-3742
▁muni	-3743
▁name	-3744
▁nata	-3745
▁near	-3746
▁niƙa	-3747
▁noke	-3748
▁nona	-3749
▁offi	-3750
▁pani	-3751
▁purp	-3752
▁rabu	-3753
▁rafi	-3754
▁ragi	-3755
▁ragu	-3756
▁raja	-3757
▁rans	-3758
▁raye	-3759
▁rubu	-3760
▁ruqa	-3761
▁sace	-3762
▁sada	-3763
▁safe	-3764
▁saka	-3765
▁sako	-3766
▁salo	-3767
▁same	-3768
▁sann	-3769
▁sare	-3770
▁shin	-3771
▁suba	-3772
▁sune	-3773
▁tace	-3774
▁tamu	-3775
▁tasa	-3776
▁tasu	-3777
▁taɓa	-3778
▁taɓo	-3779
▁them	-3780
▁tura	-3781
▁turo	-3782
▁unga	-3783
▁unit	-3784
▁ware	-3785
▁wayi	-3786
▁wigh	-3787
▁yaba	-3788
▁yabo	-3789
▁yasa	-3790
▁yawo	-3791
▁yaya	-3792
▁yaɗa	-3793
▁zabe	-3794
▁zabi	-3795
▁zamo	-3796
▁zare	-3797
▁zato	-3798
▁zaƙi	-3799
▁zaɓo	-3800
▁zube	-3801
▁zuma	-3802
▁zuri	-3803
▁Ƙara	-3804
▁ƙafa	-3805
▁ƙari	-3806
▁ƙasu	-3807
▁ƙaƙa	-3808
▁ƙera	-3809
▁ƙwai	-3810
▁Ƴaƴa	-3811
▁ƴaƴa	-3812
▁ɗare	-3813
▁ɗari	-3814
▁ɗumi	-3815
ADARWA	-3816
ANUFAR	-3817
Albasa	-3818
Appear	-3819
BABBAR	-3820
Babbar	-3821
Dabara	-3822
Galibi	-3823
Ganyen	-3824
Garden	-3825
Gwamna	-3826
Gyaran	-3827
HALAYY	-3828
ILIMIN	-3829
Kamata	-3830
Karfen	-3831
Kubewa	-3832
Lansir	-3833
Mahmud	-3834
Mawada	-3835
Menene	-3836
Moimoi	-3837
Nabati	-3838
Nazari	-3839
Norman	-3840
Rashin	-3841
Rigaka	-3842
SHAKAR	-3843
Saboda	-3844
Sandar	-3845
Sauyin	-3846
Shukar	-3847
Sunana	-3848
Tarihi	-3849
Tazara	-3850
Tsarin	-3851
Tsatso	-3852
Tsoron	-3853
Wanene	-3854
Yakubu	-3855
adanai	-3856
adunta	-3857
aiktar	-3858
alcium	-3859
alized	-3860
amuran	-3861
anarta	-3862
ancisu	-3863
andaji	-3864
andata	-3865
antuka	-3866
aradin	-3867
ariyar	-3868
arraki	-3869
aziyya	-3870
bandry	-3871
bbobin	-3872
bgenus	-3873
cerubu	-3874
cherry	-3875
cithin	-3876
cowpea	-3877
dadden	-3878
damina	-3879
ddukan	-3880
econds	-3881
faffin	-3882
fijefi	-3883
ganese	-3884
ggõmbo	-3885
hammed	-3886
idanci	-3887
ikumus	-3888
imakon	-3889
ininsu	-3890
inƙaho	-3891
iyarci	-3892
jiniya	-3893
kaline	-3894
kardar	-3895
livery	-3896
lombia	-3897
lopoly	-3898
lubale	-3899
mbance	-3900
minaka	-3901
minene	-3902
msarwa	-3903
nesium	-3904
ngilar	-3905
ompact	-3906
onvita	-3907
otanni	-3908
otonia	-3909
sarufi	-3910
sashin	-3911
shakin	-3912
shewar	-3913
shinka	-3914
shirin	-3915
shiyen	-3916
skanci	-3917
taƙila	-3918
tralia	-3919
ttacen	-3920
tumbar	-3921
ufarka	-3922
ulatus	-3923
umuran	-3924
uraron	-3925
uretic	-3926
uwanta	-3927
vannah	-3928
yyanka	-3929
zzabin	-3930
▁1,230	-3931
▁1658,	-3932
▁1686.	-3933
▁1781.	-3934
▁1800,	-3935
▁1805,	-3936
▁1806.	-3937
▁2,000	-3938
▁2008,	-3939
▁2023.	-3940
▁2025,	-3941
▁2026,	-3942
▁3,000	-3943
▁3.14.	-3944
▁5,040	-3945
▁7,000	-3946
▁9,000	-3947
▁Abdul	-3948
▁Adams	-3949
▁Akwai	-3950
▁Allah	-3951
▁Aminu	-3952
▁Andes	-3953
▁Asiya	-3954
▁Atlan	-3955
▁Ayaba	-3956
▁Bahar	-3957
▁Barka	-3958
▁Bichi	-3959
▁Bishi	-3960
▁Buhun	-3961
▁Caleb	-3962
▁Chiji	-3963
▁Ciyar	-3964
▁DIKKO	-3965
▁Dashi	-3966
▁Delta	-3967
▁Dizel	-3968
▁Dokta	-3969
▁Gabas	-3970
▁Hakar	-3971
▁Hatsi	-3972
▁Japan	-3973
▁Kabir	-3974
▁Kamar	-3975
▁Karas	-3976
▁Karna	-3977
▁Kidid	-3978
▁Kogin	-3979
▁Kwari	-3980
▁Lawal	-3981
▁Maiha	-3982
▁Maris	-3983
▁Masar	-3984
▁Matsa	-3985
▁Moses	-3986
▁Papua	-3987
▁Phila	-3988
▁Pondi	-3989
▁Radda	-3990
▁Rasha	-3991
▁Samun	-3992
▁Sannu	-3993
▁Shiri	-3994
▁Shitu	-3995
▁South	-3996
▁Sudan	-3997
▁Sugar	-3998
▁Taima	-3999
▁Tamil	-4000
▁Tilla	-4001
▁Tsaro	-4002
▁Vigna	-4003
▁Wajen	-4004
▁Waken	-4005
▁Yadda	-4006
▁Zalle	-4007
▁adabi	-4008
▁adadi	-4009
▁alama	-4010
▁alamu	-4011
▁alaqa	-4012
▁amana	-4013
▁asibi	-4014
▁assis	-4015
▁awara	-4016
▁babba	-4017
▁batan	-4018
▁bikin	-4019
▁bitar	-4020
▁broom	-4021
▁bugun	-4022
▁bukuk	-4023
▁bullo	-4024
▁canes	-4025
▁cinye	-4026
▁cizon	-4027
▁daban	-4028
▁dajin	-4029
▁daman	-4030
▁datti	-4031
▁dauki	-4032
▁durra	-4033
▁durƙu	-4034
▁feshi	-4035
▁ficul	-4036
▁fyaje	-4037
▁garin	-4038
▁garma	-4039
▁garri	-4040
▁gasan	-4041
▁gashi	-4042
▁gaske	-4043
▁gefen	-4044
▁girki	-4045
▁giɓin	-4046
▁guiwa	-4047
▁gurbi	-4048
▁gwada	-4049
▁haifi	-4050
▁halin	-4051
▁harda	-4052
▁haske	-4053
▁haura	-4054
▁hausa	-4055
▁hawan	-4056
▁horas	-4057
▁hujja	-4058
▁inten	-4059
▁jakun	-4060
▁janye	-4061
▁jinsi	-4062
▁jowar	-4063
▁kaftu	-4064
▁kalgo	-4065
▁kallo	-4066
▁kansa	-4067
▁kanta	-4068
▁karin	-4069
▁karko	-4070
▁karni	-4071
▁karɓa	-4072
▁kataf	-4073
▁kingo	-4074
▁kitse	-4075
▁kunun	-4076
▁laima	-4077
▁lurra	-4078
▁maida	-4079
▁maido	-4080
▁malam	-4081
▁manta	-4082
▁marar	-4083
▁maƙwa	-4084
▁motsi	-4085
▁murku	-4086
▁namun	-4087
▁nauin	-4088
▁nomar	-4089
▁nonon	-4090
▁numfa	-4091
▁ochin	-4092
▁press	-4093
▁ragin	-4094
▁ranin	-4095
▁rarra	-4096
▁rassa	-4097
▁rawan	-4098
▁rinka	-4099
▁riƙon	-4100
▁sacks	-4101
▁sadar	-4102
▁sahun	-4103
▁salam	-4104
▁sanda	-4105
▁sanin	-4106
▁satar	-4107
▁sauka	-4108
▁shake	-4109
▁shara	-4110
▁shaye	-4111
▁shuki	-4112
▁sigar	-4113
▁siyan	-4114
▁speci	-4115
▁subsp	-4116
▁sukar	-4117
▁sunan	-4118
▁surfa	-4119
▁sweet	-4120
▁syrup	-4121
▁tabka	-4122
▁titin	-4123
▁tsaga	-4124
▁tsaka	-4125
▁tsare	-4126
▁tsira	-4127
▁tsoka	-4128
▁tsuka	-4129
▁tuwon	-4130
▁yakin	-4131
▁yalwa	-4132
▁yarda	-4133
▁yashi	-4134
▁yawun	-4135
▁yaƙar	-4136
▁yinsa	-4137
▁zafin	-4138
▁zaren	-4139
▁zubar	-4140
▁ƙafaf	-4141
▁ƙayya	-4142
▁ɓullo	-4143
Abincin	-4144
Abubuwa	-4145
Akasari	-4146
Amfanin	-4147
Bunkasa	-4148
Cibiyar	-4149
Dangane	-4150
Dankali	-4151
General	-4152
Grafted	-4153
Gwamnan	-4154
HARSHEN	-4155
Hadarin	-4156
Harshen	-4157
Hukumar	-4158
Ibrahim	-4159
Inganta	-4160
KADCCAM	-4161
Karfafa	-4162
Kazalka	-4163
Kimiyya	-4164
Kingdom	-4165
Manoman	-4166
Matasan	-4167
Misalin	-4168
Nursery	-4169
Renewed	-4170
Sabanin	-4171
Samfuri	-4172
Suckers	-4173
Sugarin	-4174
Tasirin	-4175
Tsaftar	-4176
Wakilin	-4177
Waɗanda	-4178
Yawanci	-4179
aikatan	-4180
atsalar	-4181
beraben	-4182
ccharum	-4183
cinarum	-4184
convert	-4185
delphia	-4186
fiyawan	-4187
futukar	-4188
gantaka	-4189
garorin	-4190
gusowar	-4191
kaiwaye	-4192
kanajin	-4193
kashiya	-4194
kataren	-4195
kokinsu	-4196
lekwale	-4197
moschus	-4198
muwarsu	-4199
nursery	-4200
ssarawa	-4201
suckers	-4202
suwansu	-4203
unities	-4204
yarzana	-4205
ƙirƙire	-4206
▁1,000,	-4207
▁1,200,	-4208
▁1,250,	-4209
▁1,300.	-4210
▁10,000	-4211
▁2,000,	-4212
▁2,000.	-4213
▁20,160	-4214
▁25,200	-4215
▁27,000	-4216
▁33,000	-4217
▁Ajingi	-4218
▁Albasu	-4219
▁Amfane	-4220
▁Andhra	-4221
▁Awakii	-4222
▁Balsas	-4223
▁Cittar	-4224
▁Ciyawa	-4225
▁Ciyayi	-4226
▁Creole	-4227
▁Damdam	-4228
▁Duniya	-4229
▁Fasaha	-4230
▁Foluso	-4231
▁Fulani	-4232
▁Godwin	-4233
▁Guinea	-4234
▁HANYAR	-4235
▁Hamada	-4236
▁Haƙiƙa	-4237
▁Kadawa	-4238
▁Kamata	-4239
▁Kerala	-4240
▁Koriya	-4241
▁Koyaya	-4242
▁Kuɗaɗe	-4243
▁Louisi	-4244
▁Madhya	-4245
▁Maradi	-4246
▁Mariya	-4247
▁Misali	-4248
▁NOMAWA	-4249
▁Okafor	-4250
▁Saboda	-4251
▁Saniya	-4252
▁Sanusi	-4253
▁Sauran	-4254
▁Sauyin	-4255
▁Shirin	-4256
▁Sigari	-4257
▁Sikari	-4258
▁Sukari	-4259
▁Tabbas	-4260
▁Tafida	-4261
▁Tanadi	-4262
▁Thomas	-4263
▁Tsarin	-4264
▁Tsohon	-4265
▁Turawa	-4266
▁Tushen	-4267
▁Zinder	-4268
▁ababen	-4269
▁adabin	-4270
▁addabi	-4271
▁agajin	-4272
▁aikawa	-4273
▁akanyi	-4274
▁akesha	-4275
▁animal	-4276
▁annoba	-4277
▁artifi	-4278
▁arziƙi	-4279
▁arzƙin	-4280
▁asusun	-4281
▁auduga	-4282
▁ayyuka	-4283
▁azaman	-4284
▁bakake	-4285
▁bakwai	-4286
▁bashin	-4287
▁bayyan	-4288
▁bazama	-4289
▁bidiyo	-4290
▁biredi	-4291
▁bisani	-4292
▁buguwa	-4293
▁bullar	-4294
▁cimaka	-4295
▁cutuka	-4296
▁dabara	-4297
▁dafawa	-4298
▁dakile	-4299
▁dalili	-4300
▁damshi	-4301
▁danshi	-4302
▁daraja	-4303
▁daƙile	-4304
▁dukkan	-4305
▁dukufa	-4306
▁fadada	-4307
▁fadama	-4308
▁farare	-4309
▁faruwa	-4310
▁feydin	-4311
▁filawa	-4312
▁finger	-4313
▁fitowa	-4314
▁fulawa	-4315
▁gadoji	-4316
▁gaishe	-4317
▁ganshi	-4318
▁gindin	-4319
▁gitata	-4320
▁gudana	-4321
▁guguwa	-4322
▁guinea	-4323
▁gurare	-4324
▁gurbin	-4325
▁gwanjo	-4326
▁hajoji	-4327
▁hakali	-4328
▁halaka	-4329
▁halaye	-4330
▁hamsin	-4331
▁haraji	-4332
▁hatsin	-4333
▁haɗari	-4334
▁hotuna	-4335
▁hutawa	-4336
▁iftila	-4337
▁imphee	-4338
▁iriiri	-4339
▁irinsa	-4340
▁ishara	-4341
▁isofla	-4342
▁jirgin	-4343
▁kallon	-4344
▁kamshi	-4345
▁karade	-4346
▁karami	-4347
▁karaɗe	-4348
▁karfen	-4349
▁karɓar	-4350
▁kashin	-4351
▁kauyen	-4352
▁kifaye	-4353
▁kimain	-4354
▁kofofi	-4355
▁komawa	-4356
▁korama	-4357
▁kubuta	-4358
▁kufayi	-4359
▁kunsah	-4360
▁kwasfa	-4361
▁lakabi	-4362
▁lakume	-4363
▁lallai	-4364
▁laluɓo	-4365
▁legume	-4366
▁lokuta	-4367
▁mafita	-4368
▁mallow	-4369
▁mamaki	-4370
▁manema	-4371
▁marasa	-4372
▁masomi	-4373
▁mawaka	-4374
▁misali	-4375
▁motoci	-4376
▁muradi	-4377
▁nanata	-4378
▁potato	-4379
▁rakuma	-4380
▁rantse	-4381
▁rataya	-4382
▁rayuka	-4383
▁rediyo	-4384
▁rigima	-4385
▁rikici	-4386
▁rugumi	-4387
▁sakawa	-4388
▁sakuka	-4389
▁saukin	-4390
▁sauyin	-4391
▁shakar	-4392
▁shanya	-4393
▁shayar	-4394
▁shayin	-4395
▁shugab	-4396
▁shukin	-4397
▁sojoji	-4398
▁sunana	-4399
▁system	-4400
▁tabaci	-4401
▁tafkin	-4402
▁takama	-4403
▁takawa	-4404
▁takwas	-4405
▁tasiri	-4406
▁tasowa	-4407
▁tazara	-4408
▁trakta	-4409
▁tsabta	-4410
▁tuberc	-4411
▁tunawa	-4412
▁turawa	-4413
▁tururi	-4414
▁umarni	-4415
▁unders	-4416
▁unguic	-4417
▁wakoki	-4418
▁warkar	-4419
▁yalwar	-4420
▁yanzun	-4421
▁yardar	-4422
▁yatsun	-4423
▁yaɗuwa	-4424
▁zahari	-4425
▁zahiri	-4426
▁zargin	-4427
▁zummar	-4428
▁zuriya	-4429
▁Ɗantso	-4430
▁Ƙiraza	-4431
▁ƙarfen	-4432
▁ƙashin	-4433
▁ƙugiya	-4434
▁ƙunshe	-4435
▁ƙunshi	-4436
▁ɗinkin	-4437
▁ɗorawa	-4438
24896059	-4439
ABUBUWAN	-4440
Akasarin	-4441
Alamomin	-4442
Bangaren	-4443
Dabarata	-4444
Dammunan	-4445
Duration	-4446
Gwamnati	-4447
Haihuwar	-4448
Hanyoyin	-4449
Harkokin	-4450
Karancin	-4451
Kazalila	-4452
Kwanakin	-4453
Likitoci	-4454
Manufata	-4455
Mawadaci	-4456
Ministan	-4457
Ministar	-4458
Muhimman	-4459
Mutfwang	-4460
National	-4461
Nijeriya	-4462
Sandunan	-4463
Shiryawa	-4464
Tambayar	-4465
Tsabtace	-4466
arashtra	-4467
bbobiIdi	-4468
dankalin	-4469
haradeen	-4470
hukuntan	-4471
language	-4472
maimaita	-4473
mantansu	-4474
mentella	-4475
sancewar	-4476
sashinsu	-4477
speaking	-4478
umomomin	-4479
wainiyar	-4480
yetafiye	-4481
Ƙungiyar	-4482
▁(2020),	-4483
▁100,000	-4484
▁100,800	-4485
▁40,000,	-4486
▁400,000	-4487
▁50,000,	-4488
▁60,000.	-4489
▁Agustan	-4490
▁Akasari	-4491
▁Ayyubid	-4492
▁Bishiya	-4493
▁Bunkasa	-4494
▁Bunƙasa	-4495
▁Cibiyar	-4496
▁Cigaban	-4497
▁Compact	-4498
▁Council	-4499
▁Country	-4500
▁Dalibai	-4501
▁Daminar	-4502
▁Damshin	-4503
▁Dankali	-4504
▁Dawakin	-4505
▁Ecuador	-4506
▁Eritrea	-4507
▁Gujarat	-4508
▁Gwamnat	-4509
▁Habasha	-4510
▁Hadejia	-4511
▁Haɗakar	-4512
▁Intanet	-4513
▁Jininsu	-4514
▁Kandaji	-4515
▁Lokacin	-4516
▁MANUFAR	-4517
▁Maganin	-4518
▁Mahmoud	-4519
▁Maitama	-4520
▁Mapindi	-4521
▁Masunta	-4522
▁Michael	-4523
▁Minista	-4524
▁Mukhtar	-4525
▁Plantae	-4526
▁Poaceae	-4527
▁Rabaran	-4528
▁SADARWA	-4529
▁Sadarwa	-4530
▁Sayarwa	-4531
▁Shanono	-4532
▁Umbundu	-4533
▁Wakilin	-4534
▁Yanayin	-4535
▁addabar	-4536
▁afkuwar	-4537
▁alAbbas	-4538
▁albasar	-4539
▁alhakin	-4540
▁alkamar	-4541
▁allunan	-4542
▁amsarka	-4543
▁amsoshi	-4544
▁ashirin	-4545
▁basirar	-4546
▁bayarwa	-4547
▁bicolor	-4548
▁bitamin	-4549
▁bucewar	-4550
▁bushewa	-4551
▁calcium	-4552
▁cewarta	-4553
▁cibiyar	-4554
▁cikinsa	-4555
▁cinikin	-4556
▁creator	-4557
▁custard	-4558
▁dabinon	-4559
▁dakatar	-4560
▁dakunan	-4561
▁dalilai	-4562
▁dalilan	-4563
▁damshin	-4564
▁dangane	-4565
▁dankali	-4566
▁darajar	-4567
▁darakta	-4568
▁daɗaɗan	-4569
▁diamita	-4570
▁diploid	-4571
▁domesti	-4572
▁dukansu	-4573
▁extract	-4574
▁fannoni	-4575
▁fargaba	-4576
▁farmers	-4577
▁farming	-4578
▁fasalin	-4579
▁fashewa	-4580
▁fatarsa	-4581
▁fatunsu	-4582
▁ganyaye	-4583
▁gareshi	-4584
▁gargaɗi	-4585
▁gasassa	-4586
▁gaskiya	-4587
▁gayyata	-4588
▁gazawar	-4589
▁giranta	-4590
▁girbewa	-4591
▁gishiri	-4592
▁gonarsa	-4593
▁guduwar	-4594
▁gugguru	-4595
▁gwauron	-4596
▁hadashi	-4597
▁halittu	-4598
▁hamadar	-4599
▁hayakin	-4600
▁haɓakar	-4601
▁hirarsu	-4602
▁informa	-4603
▁intelli	-4604
▁itatuwa	-4605
▁jarirai	-4606
▁jarkoki	-4607
▁jibince	-4608
▁jihohin	-4609
▁jikinmu	-4610
▁jikinsu	-4611
▁jinjina	-4612
▁jinkiri	-4613
▁jiragen	-4614
▁kacokam	-4615
▁kacokan	-4616
▁kakanni	-4617
▁kalilan	-4618
▁kangaye	-4619
▁kankama	-4620
▁kankare	-4621
▁karagar	-4622
▁karkata	-4623
▁kasafai	-4624
▁kasarsu	-4625
▁kasashe	-4626
▁kasuwar	-4627
▁katange	-4628
▁kawoshi	-4629
▁kayansu	-4630
▁keepers	-4631
▁kewayen	-4632
▁kirkiro	-4633
▁kofofin	-4634
▁kofunan	-4635
▁kogunan	-4636
▁korafin	-4637
▁koyarwa	-4638
▁kudaden	-4639
▁kudirin	-4640
▁kulawar	-4641
▁kurajen	-4642
▁kwarewa	-4643
▁laccoci	-4644
▁lamarin	-4645
▁lambobi	-4646
▁lissafi	-4647
▁makeken	-4648
▁makonni	-4649
▁malamai	-4650
▁manhaja	-4651
▁manomin	-4652
▁masanin	-4653
▁matasan	-4654
▁mintuna	-4655
▁misalai	-4656
▁moriyar	-4657
▁motocin	-4658
▁mutunta	-4659
▁mutuwar	-4660
▁nakasan	-4661
▁namijin	-4662
▁nantake	-4663
▁nomansu	-4664
▁panicle	-4665
▁primary	-4666
▁purpose	-4667
▁rabonsa	-4668
▁ragowar	-4669
▁rahoton	-4670
▁raunana	-4671
▁rayukan	-4672
▁rikitar	-4673
▁rumfuna	-4674
▁rungume	-4675
▁ruwaito	-4676
▁sabinta	-4677
▁sabunta	-4678
▁safarar	-4679
▁saiwoyi	-4680
▁samarda	-4681
▁saniyar	-4682
▁sannuah	-4683
▁sararin	-4684
▁saukowa	-4685
▁sauƙaƙa	-4686
▁savanna	-4687
▁saɓanin	-4688
▁seconds	-4689
▁shaguna	-4690
▁shahara	-4691
▁sharara	-4692
▁shigowa	-4693
▁shugaba	-4694
▁sorghum	-4695
▁soyashi	-4696
▁tabacin	-4697
▁tabbaci	-4698
▁taimako	-4699
▁takalma	-4700
▁tambaye	-4701
▁tarakta	-4702
▁tazarar	-4703
▁taƙaice	-4704
▁teburin	-4705
▁tinƙaho	-4706
▁tsabtar	-4707
▁tsakiya	-4708
▁tsarawa	-4709
▁tsayawa	-4710
▁tsirrai	-4711
▁tuninin	-4712
▁tunkari	-4713
▁umarnin	-4714
▁unknown	-4715
▁wadanan	-4716
▁wadansu	-4717
▁wakilce	-4718
▁wakilin	-4719
▁wanzuwa	-4720
▁wightii	-4721
▁wucewar	-4722
▁wuyansu	-4723
▁yankewa	-4724
▁yarukan	-4725
▁yawaita	-4726
▁yawanci	-4727
▁yunƙuri	-4728
▁yunƙuro	-4729
▁zantuka	-4730
▁ziyarci	-4731
▁zuciyar	-4732
▁zumunta	-4733
▁Ɗanjuma	-4734
▁Ƙaramar	-4735
▁ƙalilan	-4736
▁ƙarshen	-4737
▁ƙaruwar	-4738
▁ƙaƙarin	-4739
▁ɓangare	-4740
▁ɓangren	-4741
▁ɗalibai	-4742
Alkaluman	-4743
Kasuwanci	-4744
Rayuwarmu	-4745
Rigakafin	-4746
cerubucen	-4747
himmancin	-4748
seedlings	-4749
▁100,000,	-4750
▁150,000,	-4751
▁150,000.	-4752
▁300,000,	-4753
▁Chijioke	-4754
▁Colombia	-4755
▁Delivery	-4756
▁Dukkanin	-4757
▁Gabashin	-4758
▁Gwandaye	-4759
▁Haihuwar	-4760
▁Hispania	-4761
▁Ibrahima	-4762
▁Injiniya	-4763
▁Kimbundu	-4764
▁Kudancin	-4765
▁Kwamared	-4766
▁Kwayoyin	-4767
▁Larabawa	-4768
▁Maimakon	-4769
▁Makiyaya	-4770
▁Ministan	-4771
▁Mohammed	-4772
▁Muhimman	-4773
▁Mutfwang	-4774
▁Rungumar	-4775
▁Saminaka	-4776
▁Satumbar	-4777
▁Savannah	-4778
▁Security	-4779
▁Sharadin	-4780
▁Subgenus	-4781
▁Suriname	-4782
▁Tsabtace	-4783
▁Tsakanin	-4784
▁Umayyawa	-4785
▁Virginia	-4786
▁Wataƙila	-4787
▁Waɗannan	-4788
▁akaiakai	-4789
▁alNabati	-4790
▁alkaline	-4791
▁allopoly	-4792
▁amalanke	-4793
▁aniyarta	-4794
▁asalinsa	-4795
▁asalinta	-4796
▁bakiɗaya	-4797
▁banbanci	-4798
▁barkewar	-4799
▁bukukuwa	-4800
▁bunkassa	-4801
▁cikakkun	-4802
▁classifi	-4803
▁conflaks	-4804
▁cultigen	-4805
▁diuretic	-4806
▁dobbobin	-4807
▁dukiyoyi	-4808
▁durƙusar	-4809
▁fargabar	-4810
▁fataucin	-4811
▁firamare	-4812
▁gamsarwa	-4813
▁gargaɗin	-4814
▁garkuwar	-4815
▁girmanta	-4816
▁hasashen	-4817
▁hatsarin	-4818
▁ilimance	-4819
▁ittatuwa	-4820
▁iyalanta	-4821
▁iyalinsu	-4822
▁iƙirarin	-4823
▁jagorori	-4824
▁janareta	-4825
▁jarabawa	-4826
▁jefijefi	-4827
▁karkarar	-4828
▁karkatar	-4829
▁kaskanci	-4830
▁kimainin	-4831
▁kingombo	-4832
▁kulikuli	-4833
▁kwantena	-4834
▁kwarewar	-4835
▁kyawawan	-4836
▁lecithin	-4837
▁madatsar	-4838
▁maimaita	-4839
▁maimakon	-4840
▁majiyoyi	-4841
▁makiyaya	-4842
▁makwabta	-4843
▁marubuta	-4844
▁masaniya	-4845
▁masarufi	-4846
▁mayankar	-4847
▁ministar	-4848
▁murkushe	-4849
▁narkewan	-4850
▁narkewar	-4851
▁nasarori	-4852
▁numfashi	-4853
▁rungumar	-4854
▁samaniya	-4855
▁sanadari	-4856
▁sanarwar	-4857
▁sassaken	-4858
▁sinadari	-4859
▁students	-4860
▁tafkunan	-4861
▁taimakon	-4862
▁takardar	-4863
▁talakawa	-4864
▁tallafin	-4865
▁tarayyar	-4866
▁tarkatar	-4867
▁tattauna	-4868
▁tauraron	-4869
▁tilasata	-4870
▁tsammani	-4871
▁tsananin	-4872
▁wanzamai	-4873
▁wanzaman	-4874
▁yammacin	-4875
▁yashewar	-4876
▁yayyanka	-4877
▁zazzabin	-4878
▁ƙalubale	-4879
▁ƙaƙabawa	-4880
▁ƙirƙirar	-4881
▁ɓangaren	-4882
Appearance	-4883
Gwamnatoci	-4884
HALAYYENKA	-4885
Jamhuriyar	-4886
Kasuwancin	-4887
Mataimakin	-4888
Muhimmanci	-4889
Neonotonia	-4890
Scientific	-4891
Tattaunawa	-4892
cebambance	-4893
▁Atlantika	-4894
▁Australia	-4895
▁Bishiyoyi	-4896
▁Buratalai	-4897
▁Cibiyoyin	-4898
▁Cututtuka	-4899
▁Damuwarsu	-4900
▁Jefferson	-4901
▁Karnataka	-4902
▁Kididdiga	-4903
▁Louisiana	-4904
▁Majalisar	-4905
▁Nassarawa	-4906
▁Potassium	-4907
▁Saccharum	-4908
▁Seedlings	-4909
▁Taimakawa	-4910
▁Tillaberi	-4911
▁Tirelolin	-4912
▁alaikumus	-4913
▁alkaluman	-4914
▁alkawarin	-4915
▁amfaninsu	-4916
▁amintattu	-4917
▁annashuwa	-4918
▁arziƙinta	-4919
▁asibitoci	-4920
▁assistant	-4921
▁bangarori	-4922
▁barazanar	-4923
▁basirarsu	-4924
▁broomcorn	-4925
▁bukatarsu	-4926
▁canescens	-4927
▁damammaki	-4928
▁fadakarwa	-4929
▁fafutukar	-4930
▁ficulneus	-4931
▁fuskancin	-4932
▁gabatarwa	-4933
▁galibinsu	-4934
▁gidajensu	-4935
▁ginshikin	-4936
▁gwandayen	-4937
▁hamshakin	-4938
▁husbandry	-4939
▁intensive	-4940
▁jagoranci	-4941
▁jagororin	-4942
▁jakunkuna	-4943
▁kamfanoni	-4944
▁kapiyoyin	-4945
▁karfafawa	-4946
▁kayatarwa	-4947
▁kututtuka	-4948
▁lafiyarsa	-4949
▁layarzana	-4950
▁mafiyawan	-4951
▁magidanci	-4952
▁magnesium	-4953
▁majalisar	-4954
▁manganese	-4955
▁manomanta	-4956
▁manufarka	-4957
▁matsaloli	-4958
▁musammamn	-4959
▁nasarorin	-4960
▁potassium	-4961
▁raberaben	-4962
▁rahotanni	-4963
▁ranstuwar	-4964
▁rarrashin	-4965
▁rayuwarsu	-4966
▁rayuwarta	-4967
▁sakataren	-4968
▁sanadiyar	-4969
▁semonvita	-4970
▁sinadarin	-4971
▁sinadirai	-4972
▁taraktoci	-4973
▁tarurruka	-4974
▁tsofaffin	-4975
▁wadatacce	-4976
▁wadatuwar	-4977
▁Ƙarancisu	-4978
▁ƙoƙarinta	-4979
▁ƙungiyoyi	-4980
▁ƙwanƙolin	-4981
▁ɓangarori	-4982
Kwamishinan	-4983
▁DabbobiIdi	-4984
▁Dangantaka	-4985
▁Gwamnatoci	-4986
▁Kasancewar	-4987
▁Kasuwancin	-4988
▁amintattun	-4989
▁amsoshinka	-4990
▁artificial	-4991
▁bangarorin	-4992
▁bayyananne	-4993
▁buhunhunan	-4994
▁cikakkiyar	-4995
▁dabbobinsu	-4996
▁darussansu	-4997
▁gasanshiya	-4998
▁gurgusowar	-4999
▁haihuwarsu	-5000
▁hankalinsu	-5001
▁ingancinsu	-5002
▁ingantacce	-5003
▁jagorancin	-5004
▁jamhuriyar	-5005
▁kakanninsu	-5006
▁kashikashi	-5007
▁kowannensu	-5008
▁kwalekwale	-5009
▁kwamngilar	-5010
▁kwararowar	-5011
▁mahukuntan	-5012
▁makwabtaka	-5013
▁mataimakin	-5014
▁maƙwabtaka	-5015
▁sadarwarka	-5016
▁sarrafashi	-5017
▁shayeshaye	-5018
▁shukokinsu	-5019
▁takamaiman	-5020
▁tambayoyin	-5021
▁taraktocin	-5022
▁tarurrukan	-5023
▁tattawanar	-5024
▁tomentella	-5025
▁tsabatsaba	-5026
▁tsakaninsu	-5027
▁tsararraki	-5028
▁understand	-5029
▁wadatattun	-5030
▁watanninsu	-5031
▁yaduddukan	-5032
▁yankunansu	-5033
▁ƙirƙirarka	-5034
▁ƙungiyarsu	-5035
▁ɗawainiyar	-5036
▁Abelmoschus	-5037
▁Agriculture	-5038
▁Kwamishinan	-5039
▁Maharashtra	-5040
▁Matsakaicin	-5041
▁Muhimmancin	-5042
▁Pondicherry	-5043
▁communities	-5044
▁dangantakar	-5045
▁fingerlings	-5046
▁gwamnatocin	-5047
▁harsashinsu	-5048
▁information	-5049
▁isoflavones	-5050
▁katafariyar	-5051
▁littattafan	-5052
▁mahimmancin	-5053
▁ochinggõmbo	-5054
▁officinarum	-5055
▁rigakafinsu	-5056
▁shawarwarin	-5057
▁shugabancin	-5058
▁shugabannin	-5059
▁specialized	-5060
▁tabbataccen	-5061
▁tsaretsaren	-5062
▁unguiculata	-5063
▁yalwataccen	-5064
▁Ɗantsoshiya	-5065
▁ƙaddamarwar	-5066
▁ƙafafuwanta	-5067
▁ƙasusuwansu	-5068
▁ƙayyadadden	-5069
▁ElZaharadeen	-5070
▁Philadelphia	-5071
▁ingantacciya	-5072
▁intelligence	-5073
▁kasancewarta	-5074
▁makamantansu	-5075
▁makarkashiya	-5076
▁shiryeshiyen	-5077
▁tafiyetafiye	-5078
▁tsaftattacen	-5079
▁tuberculatus	-5080
▁Hausalanguage	-5081
▁Hausaspeaking	-5082
▁allopolyploid	-5083
▁domestication	-5084
▁rubucerubucen	-5085
▁sannuahankali	-5086
▁classification	-5087
▁ƙirƙireƙirƙire	-5088
(/	-5089
(1	-5090
(2	-5091
(7	-5092
,0	-5093
,1	-5094
.4	-5095
.8	-5096
0)	-5097
0,	-5098
0.	-5099
02	-5100
05	-5101
06	-5102
08	-5103
0:	-5104
1,	-5105
10	-5106
11	-5107
12	-5108
14	-5109
15	-5110
19	-5111
1:	-5112
2,	-5113
2.	-5114
21	-5115
24	-5116
25	-5117
26	-5118
27	-5119
2:	-5120
3,	-5121
33	-5122
3:	-5123
40	-5124
4:	-5125
58	-5126
5:	-5127
6,	-5128
62	-5129
65	-5130
67	-5131
68	-5132
7,	-5133
7.	-5134
70	-5135
72	-5136
74	-5137
76	-5138
78	-5139
80	-5140
81	-5141
86	-5142
89	-5143
9,	-5144
90	-5145
91	-5146
93	-5147
96	-5148
:0	-5149
AW	-5150
Ab	-5151
Ad	-5152
Af	-5153
Ag	-5154
Ah	-5155
Ai	-5156
Aj	-5157
Ak	-5158
Am	-5159
Ar	-5160
As	-5161
At	-5162
Au	-5163
Aw	-5164
Ay	-5165
BA	-5166
BB	-5167
Bi	-5168
Bo	-5169
Br	-5170
Bu	-5171
CA	-5172
Ca	-5173
Ch	-5174
Ci	-5175
Cr	-5176
Cu	-5177
DC	-5178
DD	-5179
DF	-5180
DI	-5181
DS	-5182
DV	-5183
De	-5184
Di	-5185
Do	-5186
Dr	-5187
Du	-5188
ER	-5189
Ec	-5190
Eg	-5191
El	-5192
Er	-5193
FA	-5194
Fi	-5195
Fo	-5196
Fu	-5197
Ge	-5198
Gi	-5199
Gl	-5200
Go	-5201
Gr	-5202
Gu	-5203
Gw	-5204
Gy	-5205
HA	-5206
HE	-5207
Hi	-5208
Ho	-5209
Hu	-5210
IM	-5211
Ib	-5212
Id	-5213
Ij	-5214
Ik	-5215
Il	-5216
Is	-5217
It	-5218
Ja	-5219
Je	-5220
Ji	-5221
Jo	-5222
KE	-5223
KI	-5224
KK	-5225
Ke	-5226
Kw	-5227
LA	-5228
LI	-5229
LO	-5230
La	-5231
Le	-5232
Li	-5233
Lo	-5234
MA	-5235
ME	-5236
MI	-5237
MO	-5238
Me	-5239
Mu	-5240
NA	-5241
NB	-5242
NI	-5243
NK	-5244
NO	-5245
NT	-5246
NU	-5247
NY	-5248
No	-5249
Nu	-5250
NƁ	-5251
Ok	-5252
PA	-5253
PR	-5254
Pa	-5255
Ph	-5256
Pl	-5257
Po	-5258
Pr	-5259
RA	-5260
RE	-5261
RS	-5262
RW	-5263
Re	-5264
Ro	-5265
Ru	-5266
SA	-5267
SD	-5268
SE	-5269
SU	-5270
Sc	-5271
Se	-5272
Si	-5273
So	-5274
TA	-5275
TI	-5276
TR	-5277
Th	-5278
Ti	-5279
Tl	-5280
Tr	-5281
UB	-5282
US	-5283
UW	-5284
Um	-5285
Ur	-5286
Vi	-5287
WO	-5288
Wi	-5289
Wu	-5290
YA	-5291
YE	-5292
YY	-5293
Yu	-5294
Zi	-5295
Zu	-5296
[1	-5297
ab	-5298
ac	-5299
af	-5300
ag	-5301
ah	-5302
aj	-5303
ak	-5304
aq	-5305
as	-5306
at	-5307
au	-5308
av	-5309
aw	-5310
ax	-5311
ay	-5312
az	-5313
aƙ	-5314
aƴ	-5315
aɓ	-5316
aɗ	-5317
bb	-5318
bd	-5319
bg	-5320
bk	-5321
br	-5322
bt	-5323
cl	-5324
cr	-5325
dd	-5326
dg	-5327
dl	-5328
dr	-5329
dw	-5330
ea	-5331
ee	-5332
eg	-5333
eh	-5334
ei	-5335
ej	-5336
eo	-5337
eu	-5338
ey	-5339
eƙ	-5340
ff	-5341
fk	-5342
fl	-5343
fr	-5344
fw	-5345
fy	-5346
gb	-5347
gd	-5348
gn	-5349
gr	-5350
gu	-5351
gw	-5352
gy	-5353
gõ	-5354
hm	-5355
hr	-5356
ht	-5357
hy	-5358
iI	-5359
ib	-5360
ie	-5361
if	-5362
ih	-5363
ii	-5364
ij	-5365
im	-5366
io	-5367
ip	-5368
it	-5369
iu	-5370
iv	-5371
iw	-5372
iy	-5373
iz	-5374
iš	-5375
iƙ	-5376
iɓ	-5377
iɗ	-5378
jj	-5379
ju	-5380
kh	-5381
kp	-5382
kr	-5383
kt	-5384
kw	-5385
ky	-5386
lA	-5387
lN	-5388
lZ	-5389
lb	-5390
lc	-5391
ld	-5392
lf	-5393
lg	-5394
lh	-5395
lk	-5396
lm	-5397
ln	-5398
ls	-5399
lt	-5400
lw	-5401
mb	-5402
mc	-5403
md	-5404
mh	-5405
mk	-5406
mm	-5407
ms	-5408
mt	-5409
my	-5410
nb	-5411
nc	-5412
nd	-5413
nf	-5414
ng	-5415
nh	-5416
nj	-5417
nk	-5418
nm	-5419
nn	-5420
no	-5421
ns	-5422
nt	-5423
nu	-5424
nv	-5425
nw	-5426
ny	-5427
nz	-5428
nƙ	-5429
nɗ	-5430
oc	-5431
of	-5432
og	-5433
oh	-5434
oi	-5435
oj	-5436
ok	-5437
oo	-5438
op	-5439
ou	-5440
oy	-5441
ph	-5442
pl	-5443
pp	-5444
pr	-5445
pu	-5446
rb	-5447
rc	-5448
rd	-5449
rf	-5450
rg	-5451
rh	-5452
rk	-5453
rl	-5454
rm	-5455
rn	-5456
rp	-5457
rr	-5458
rt	-5459
rw	-5460
rz	-5461
rƙ	-5462
rɓ	-5463
sb	-5464
sc	-5465
sf	-5466
sk	-5467
sp	-5468
ss	-5469
st	-5470
sw	-5471
sy	-5472
tf	-5473
tl	-5474
tr	-5475
tt	-5476
ub	-5477
uc	-5478
uf	-5479
uh	-5480
uj	-5481
up	-5482
uq	-5483
uw	-5484
uy	-5485
uz	-5486
uƙ	-5487
uɓ	-5488
uɗ	-5489
va	-5490
vi	-5491
vo	-5492
wn	-5493
wp	-5494
wu	-5495
ww	-5496
xi	-5497
xt	-5498
yc	-5499
yd	-5500
yp	-5501
yr	-5502
yt	-5503
yy	-5504
ze	-5505
zƙ	-5506
õm	-5507
ƁR	-5508
Ɓo	-5509
Ƙa	-5510
Ƙi	-5511
Ƙu	-5512
ƙw	-5513
Ƴa	-5514
ɓe	-5515
ɓi	-5516
ɓu	-5517
ɓɓ	-5518
ɗu	-5519
ɗɗ	-5520
ɡə	-5521
ند	-5522
▁u	-5523
,00	-5524
.1.	-5525
.14	-5526
0),	-5527
008	-5528
05,	-5529
06.	-5530
100	-5531
200	-5532
202	-5533
230	-5534
250	-5535
300	-5536
400	-5537
489	-5538
5,0	-5539
5,2	-5540
500	-5541
605	-5542
700	-5543
720	-5544
748	-5545
800	-5546
900	-5547
930	-5548
:03	-5549
ADA	-5550
ADC	-5551
ADD	-5552
ADV	-5553
ALA	-5554
ALO	-5555
ANU	-5556
ARS	-5557
ARW	-5558
Ada	-5559
Aur	-5560
Awa	-5561
Aya	-5562
BAB	-5563
BAR	-5564
Bar	-5565
Baƙ	-5566
Bin	-5567
Bra	-5568
Bur	-5569
CAM	-5570
Chi	-5571
Cin	-5572
Cir	-5573
Cre	-5574
Dab	-5575
Dik	-5576
Don	-5577
Dun	-5578
Dur	-5579
ENK	-5580
ERT	-5581
Eri	-5582
FAR	-5583
Far	-5584
Gin	-5585
Gir	-5586
Gwa	-5587
HEN	-5588
Hot	-5589
Huk	-5590
IKK	-5591
INA	-5592
Ili	-5593
Isa	-5594
Jin	-5595
KAR	-5596
Kaf	-5597
Kan	-5598
Kas	-5599
Kaz	-5600
Kin	-5601
Kun	-5602
Kur	-5603
LAB	-5604
Lan	-5605
Lar	-5606
Ler	-5607
MAN	-5608
MEN	-5609
Mar	-5610
Min	-5611
Mut	-5612
NAD	-5613
Nur	-5614
Oka	-5615
Pha	-5616
Phi	-5617
Pon	-5618
Pra	-5619
RES	-5620
RTI	-5621
Ran	-5622
Raɗ	-5623
Ren	-5624
Rum	-5625
Run	-5626
SAB	-5627
SEM	-5628
SHA	-5629
Sam	-5630
Sar	-5631
Sau	-5632
Sin	-5633
Sor	-5634
Suc	-5635
Sur	-5636
Tan	-5637
Tar	-5638
Taz	-5639
Tin	-5640
Tir	-5641
Tur	-5642
UBU	-5643
Uma	-5644
Vir	-5645
WAN	-5646
Wur	-5647
YAR	-5648
YEN	-5649
Yah	-5650
Yak	-5651
Yam	-5652
Yin	-5653
Zah	-5654
Zai	-5655
Zan	-5656
Zar	-5657
Zaɓ	-5658
Zin	-5659
aba	-5660
abi	-5661
abo	-5662
ace	-5663
aci	-5664
act	-5665
adi	-5666
afa	-5667
afi	-5668
aga	-5669
age	-5670
aha	-5671
aid	-5672
aih	-5673
ain	-5674
aka	-5675
ake	-5676
aki	-5677
ala	-5678
alo	-5679
ama	-5680
amh	-5681
amu	-5682
anb	-5683
anc	-5684
and	-5685
ang	-5686
anh	-5687
anj	-5688
ank	-5689
ans	-5690
ant	-5691
any	-5692
anz	-5693
anƙ	-5694
anɗ	-5695
arb	-5696
arc	-5697
ard	-5698
arf	-5699
arg	-5700
arh	-5701
ark	-5702
arm	-5703
arn	-5704
aro	-5705
arr	-5706
art	-5707
aru	-5708
arw	-5709
ary	-5710
arz	-5711
arƙ	-5712
arɓ	-5713
ash	-5714
asu	-5715
ata	-5716
ati	-5717
ato	-5718
ats	-5719
atu	-5720
aun	-5721
aur	-5722
aya	-5723
aye	-5724
ayu	-5725
aza	-5726
aɗa	-5727
bab	-5728
bac	-5729
bak	-5730
bal	-5731
bam	-5732
bas	-5733
bat	-5734
bay	-5735
baz	-5736
beb	-5737
biI	-5738
bit	-5739
biy	-5740
bub	-5741
buc	-5742
buj	-5743
bur	-5744
cci	-5745
cea	-5746
cew	-5747
cha	-5748
chi	-5749
cia	-5750
cib	-5751
cie	-5752
cig	-5753
cik	-5754
cil	-5755
cim	-5756
cir	-5757
cis	-5758
ciu	-5759
ciw	-5760
ciy	-5761
ciz	-5762
cla	-5763
con	-5764
cun	-5765
cur	-5766
dab	-5767
dac	-5768
daf	-5769
dag	-5770
daj	-5771
dak	-5772
dal	-5773
das	-5774
dat	-5775
dau	-5776
daw	-5777
day	-5778
daz	-5779
daƙ	-5780
daɗ	-5781
ddi	-5782
del	-5783
dic	-5784
don	-5785
dor	-5786
dri	-5787
dud	-5788
dul	-5789
dum	-5790
dun	-5791
ean	-5792
ear	-5793
eba	-5794
eci	-5795
een	-5796
eet	-5797
efe	-5798
efi	-5799
eji	-5800
eka	-5801
eke	-5802
eks	-5803
ele	-5804
eli	-5805
ell	-5806
elo	-5807
ena	-5808
enc	-5809
ens	-5810
ent	-5811
enu	-5812
eon	-5813
erc	-5814
eri	-5815
err	-5816
esa	-5817
ese	-5818
esh	-5819
esi	-5820
eta	-5821
eti	-5822
eus	-5823
fay	-5824
faɗ	-5825
fer	-5826
fic	-5827
fid	-5828
fij	-5829
fir	-5830
fiy	-5831
fku	-5832
fri	-5833
fta	-5834
fun	-5835
fur	-5836
fya	-5837
gab	-5838
gaj	-5839
gas	-5840
gat	-5841
gay	-5842
gaz	-5843
gaɗ	-5844
gdo	-5845
ger	-5846
gna	-5847
gog	-5848
gom	-5849
gon	-5850
gum	-5851
gur	-5852
gwa	-5853
gya	-5854
hae	-5855
haj	-5856
han	-5857
has	-5858
hem	-5859
hen	-5860
her	-5861
hij	-5862
hir	-5863
hme	-5864
hmo	-5865
hmu	-5866
hoh	-5867
hot	-5868
hra	-5869
hti	-5870
hum	-5871
hur	-5872
hus	-5873
ian	-5874
iba	-5875
ibe	-5876
ici	-5877
ico	-5878
idi	-5879
ifa	-5880
ifi	-5881
iga	-5882
iha	-5883
ihi	-5884
ihu	-5885
iir	-5886
iji	-5887
ika	-5888
ike	-5889
ila	-5890
ile	-5891
ili	-5892
ilo	-5893
imi	-5894
imo	-5895
inc	-5896
ind	-5897
inf	-5898
inj	-5899
ink	-5900
inm	-5901
ino	-5902
ins	-5903
int	-5904
inu	-5905
iny	-5906
inƙ	-5907
ion	-5908
irb	-5909
irk	-5910
irn	-5911
irr	-5912
iry	-5913
irƙ	-5914
isa	-5915
ish	-5916
isi	-5917
iti	-5918
itu	-5919
ium	-5920
iur	-5921
iwo	-5922
iye	-5923
iyo	-5924
iƙa	-5925
jan	-5926
jio	-5927
jir	-5928
jun	-5929
jur	-5930
kab	-5931
kac	-5932
kaf	-5933
kak	-5934
kal	-5935
kam	-5936
kas	-5937
kat	-5938
kaw	-5939
kek	-5940
ker	-5941
kes	-5942
kew	-5943
kii	-5944
kip	-5945
kit	-5946
kiy	-5947
kiɗ	-5948
kki	-5949
kko	-5950
kos	-5951
kto	-5952
kum	-5953
kur	-5954
kya	-5955
lab	-5956
lac	-5957
lad	-5958
laf	-5959
lah	-5960
lak	-5961
lal	-5962
laq	-5963
las	-5964
lat	-5965
lau	-5966
lav	-5967
law	-5968
lay	-5969
lba	-5970
lce	-5971
lci	-5972
lea	-5973
leb	-5974
lec	-5975
leg	-5976
ler	-5977
lgo	-5978
lha	-5979
lib	-5980
lig	-5981
lik	-5982
lil	-5983
lim	-5984
lis	-5985
lit	-5986
liy	-5987
liz	-5988
lld	-5989
lli	-5990
lmo	-5991
loa	-5992
lof	-5993
loi	-5994
lok	-5995
lol	-5996
lon	-5997
lop	-5998
low	-5999
lta	-6000
lum	-6001
lun	-6002
lur	-6003
lus	-6004
luɓ	-6005
lyp	-6006
lyt	-6007
mac	-6008
mad	-6009
maf	-6010
mag	-6011
mah	-6012
maj	-6013
mak	-6014
mam	-6015
mas	-6016
mat	-6017
maw	-6018
max	-6019
may	-6020
maz	-6021
maƙ	-6022
mba	-6023
mbi	-6024
mbu	-6025
mci	-6026
mda	-6027
mer	-6028
mfa	-6029
mij	-6030
miy	-6031
mme	-6032
mna	-6033
mon	-6034
mor	-6035
mou	-6036
msa	-6037
msh	-6038
mta	-6039
muh	-6040
mur	-6041
mut	-6042
muw	-6043
nat	-6044
nda	-6045
nde	-6046
ngi	-6047
nji	-6048
nka	-6049
non	-6050
now	-6051
nsa	-6052
nta	-6053
nun	-6054
nur	-6055
nwa	-6056
obe	-6057
obi	-6058
oda	-6059
odi	-6060
ofa	-6061
ofi	-6062
oha	-6063
ohi	-6064
oja	-6065
oji	-6066
oki	-6067
oli	-6068
olo	-6069
oly	-6070
omc	-6071
omo	-6072
omp	-6073
ond	-6074
one	-6075
onf	-6076
onn	-6077
ons	-6078
ont	-6079
ore	-6080
org	-6081
orn	-6082
osa	-6083
osh	-6084
ots	-6085
oun	-6086
our	-6087
out	-6088
owa	-6089
oya	-6090
oyi	-6091
per	-6092
phe	-6093
phi	-6094
ppe	-6095
pre	-6096
pri	-6097
pua	-6098
pur	-6099
rab	-6100
rac	-6101
rad	-6102
raf	-6103
rah	-6104
raj	-6105
rak	-6106
ran	-6107
rar	-6108
ras	-6109
raz	-6110
rba	-6111
rda	-6112
reo	-6113
ric	-6114
rid	-6115
rin	-6116
rka	-6117
rma	-6118
rog	-6119
ron	-6120
roo	-6121
run	-6122
rwa	-6123
rya	-6124
rɡə	-6125
sab	-6126
saf	-6127
sag	-6128
sak	-6129
sal	-6130
sam	-6131
sas	-6132
sat	-6133
saw	-6134
say	-6135
sch	-6136
seo	-6137
ser	-6138
ses	-6139
sfa	-6140
sht	-6141
shu	-6142
sis	-6143
siv	-6144
ska	-6145
ske	-6146
ski	-6147
sof	-6148
soh	-6149
son	-6150
sor	-6151
spe	-6152
ssh	-6153
ste	-6154
sti	-6155
sto	-6156
stu	-6157
suc	-6158
sus	-6159
suw	-6160
tab	-6161
tac	-6162
tai	-6163
tak	-6164
tal	-6165
tam	-6166
tas	-6167
tat	-6168
tau	-6169
taw	-6170
tay	-6171
taz	-6172
taƙ	-6173
taɓ	-6174
ted	-6175
ter	-6176
tie	-6177
tig	-6178
tiv	-6179
toc	-6180
tre	-6181
tub	-6182
tud	-6183
tuk	-6184
tut	-6185
tuƙ	-6186
uad	-6187
ube	-6188
ubi	-6189
uce	-6190
uda	-6191
uhi	-6192
uin	-6193
uko	-6194
uli	-6195
uln	-6196
ulo	-6197
ult	-6198
umb	-6199
umf	-6200
umu	-6201
unc	-6202
und	-6203
unh	-6204
unk	-6205
uns	-6206
unt	-6207
unu	-6208
unƙ	-6209
urb	-6210
urf	-6211
urg	-6212
urk	-6213
urr	-6214
urt	-6215
urƙ	-6216
ush	-6217
uss	-6218
ust	-6219
usu	-6220
uta	-6221
utu	-6222
uwo	-6223
uye	-6224
uyi	-6225
uƙa	-6226
uƙe	-6227
uɗa	-6228
van	-6229
var	-6230
ver	-6231
wab	-6232
wac	-6233
wad	-6234
wah	-6235
waj	-6236
wak	-6237
was	-6238
wat	-6239
wau	-6240
waw	-6241
way	-6242
waɗ	-6243
wer	-6244
win	-6245
wpe	-6246
wur	-6247
yab	-6248
yad	-6249
yaf	-6250
yaj	-6251
yak	-6252
yal	-6253
yam	-6254
yas	-6255
yat	-6256
yau	-6257
yaw	-6258
yay	-6259
yaƙ	-6260
yaɗ	-6261
yoy	-6262
yru	-6263
yun	-6264
zal	-6265
zan	-6266
zar	-6267
zir	-6268
ziƙ	-6269
zuz	-6270
Ɓom	-6271
Ɗan	-6272
Ƙar	-6273
Ƙir	-6274
Ƙun	-6275
ƙah	-6276
ƙai	-6277
ƙan	-6278
ƙaƙ	-6279
ƙun	-6280
ƙur	-6281
ƴaƴ	-6282
ɓan	-6283
ɗan	-6284
ɗar	-6285
ɗau	-6286
ɗen	-6287
ɗor	-6288
ɗum	-6289
▁(/	-6290
▁(1	-6291
▁(2	-6292
▁(7	-6293
▁1,	-6294
▁15	-6295
▁19	-6296
▁2,	-6297
▁3.	-6298
▁62	-6299
▁76	-6300
▁AM	-6301
▁Ab	-6302
▁Ad	-6303
▁Ag	-6304
▁Ai	-6305
▁Aj	-6306
▁Ak	-6307
▁Ar	-6308
▁Au	-6309
▁Ay	-6310
▁BB	-6311
▁Bo	-6312
▁Br	-6313
▁Ca	-6314
▁DI	-6315
▁DS	-6316
▁Du	-6317
▁Ec	-6318
▁Eg	-6319
▁El	-6320
▁Fo	-6321
▁Fu	-6322
▁Gi	-6323
▁Gl	-6324
▁Go	-6325
▁HA	-6326
▁Hi	-6327
▁Ho	-6328
▁Hu	-6329
▁Ib	-6330
▁Id	-6331
▁Ij	-6332
▁Ik	-6333
▁Je	-6334
▁Jo	-6335
▁KI	-6336
▁Le	-6337
▁Lo	-6338
▁MA	-6339
▁Me	-6340
▁Mu	-6341
▁NA	-6342
▁NO	-6343
▁Ne	-6344
▁NƁ	-6345
▁PA	-6346
▁Pa	-6347
▁Po	-6348
▁RA	-6349
▁Re	-6350
▁Ro	-6351
▁Ru	-6352
▁SA	-6353
▁Se	-6354
▁TR	-6355
▁Tl	-6356
▁Ts	-6357
▁US	-6358
▁Um	-6359
▁Vi	-6360
▁Wi	-6361
▁Wu	-6362
▁Zu	-6363
▁ab	-6364
▁ac	-6365
▁ad	-6366
▁ag	-6367
▁aj	-6368
▁ak	-6369
▁au	-6370
▁aw	-6371
▁az	-6372
▁br	-6373
▁ca	-6374
▁co	-6375
▁cr	-6376
▁dr	-6377
▁eg	-6378
▁et	-6379
▁fo	-6380
▁fu	-6381
▁gw	-6382
▁gy	-6383
▁he	-6384
▁hi	-6385
▁ho	-6386
▁id	-6387
▁if	-6388
▁ik	-6389
▁im	-6390
▁it	-6391
▁iš	-6392
▁iƙ	-6393
▁jo	-6394
▁kw	-6395
▁ky	-6396
▁of	-6397
▁re	-6398
▁se	-6399
▁sp	-6400
▁st	-6401
▁sw	-6402
▁te	-6403
▁th	-6404
▁tr	-6405
▁uk	-6406
▁we	-6407
▁wi	-6408
▁zi	-6409
▁Ƙa	-6410
▁ƙe	-6411
▁ƙo	-6412
▁ƙu	-6413
▁ƙw	-6414
▁Ƴa	-6415
▁ɓu	-6416
▁ɗo	-6417
,230	-6418
,250	-6419
000,	-6420
000.	-6421
2020	-6422
300.	-6423
5,04	-6424
6000	-6425
7000	-6426
8000	-6427
9605	-6428
ABAR	-6429
ADCC	-6430
ADDA	-6431
ALAY	-6432
ALON	-6433
ARSH	-6434
ARWA	-6435
ASAB	-6436
Abba	-6437
Akwa	-6438
Alla	-6439
Ciya	-6440
Dafa	-6441
EMEN	-6442
Fara	-6443
Gina	-6444
Gwan	-6445
Gyar	-6446
IMIN	-6447
Kama	-6448
Kara	-6449
Kasu	-6450
Kwar	-6451
Lara	-6452
Loka	-6453
Mara	-6454
Mawa	-6455
Mini	-6456
Mose	-6457
Mutf	-6458
Nurs	-6459
OMAN	-6460
OMAW	-6461
Plan	-6462
RTIS	-6463
Rana	-6464
Ruwa	-6465
SHAK	-6466
Sana	-6467
Sani	-6468
Sann	-6469
Tana	-6470
Tara	-6471
Tsar	-6472
UFAR	-6473
Umar	-6474
VERT	-6475
Waki	-6476
Wani	-6477
Wann	-6478
Yawa	-6479
abar	-6480
abba	-6481
aben	-6482
abin	-6483
adan	-6484
adar	-6485
adda	-6486
agan	-6487
ahar	-6488
aiha	-6489
aihu	-6490
aima	-6491
aina	-6492
aita	-6493
ajer	-6494
akai	-6495
akan	-6496
akar	-6497
aken	-6498
alin	-6499
aliz	-6500
aman	-6501
amar	-6502
amin	-6503
anad	-6504
anai	-6505
anaj	-6506
anay	-6507
anen	-6508
anga	-6509
angi	-6510
anic	-6511
aniu	-6512
aniy	-6513
anke	-6514
anno	-6515
anon	-6516
ansa	-6517
ansh	-6518
ansu	-6519
anti	-6520
ants	-6521
anun	-6522
anus	-6523
anya	-6524
anye	-6525
anyi	-6526
anyo	-6527
anza	-6528
anzu	-6529
arad	-6530
arag	-6531
arai	-6532
araj	-6533
arak	-6534
aram	-6535
aran	-6536
aray	-6537
araz	-6538
araɗ	-6539
arci	-6540
arda	-6541
areh	-6542
arfa	-6543
arfi	-6544
arga	-6545
arha	-6546
arhi	-6547
arih	-6548
arir	-6549
arki	-6550
arko	-6551
arma	-6552
armu	-6553
aron	-6554
aror	-6555
arru	-6556
arsa	-6557
arsh	-6558
arta	-6559
arun	-6560
arur	-6561
arwa	-6562
arƙa	-6563
asar	-6564
ashi	-6565
asir	-6566
atar	-6567
atta	-6568
auka	-6569
auna	-6570
awan	-6571
ayan	-6572
ayar	-6573
ayin	-6574
bace	-6575
baci	-6576
bada	-6577
bale	-6578
bali	-6579
band	-6580
bann	-6581
bash	-6582
bati	-6583
baya	-6584
baye	-6585
bayo	-6586
bban	-6587
bbar	-6588
bbin	-6589
bebe	-6590
bewa	-6591
bino	-6592
bito	-6593
biyo	-6594
buba	-6595
bubu	-6596
buce	-6597
buja	-6598
bunc	-6599
cewa	-6600
char	-6601
chin	-6602
cien	-6603
cika	-6604
cike	-6605
cima	-6606
cini	-6607
ciny	-6608
cisu	-6609
cium	-6610
coci	-6611
coka	-6612
colo	-6613
cuad	-6614
cula	-6615
curi	-6616
daci	-6617
dada	-6618
dadi	-6619
daji	-6620
daka	-6621
dama	-6622
dams	-6623
dann	-6624
danu	-6625
dara	-6626
dash	-6627
data	-6628
dats	-6629
datu	-6630
ddab	-6631
dden	-6632
deji	-6633
dich	-6634
dlin	-6635
dodi	-6636
duga	-6637
efen	-6638
ekwa	-6639
ella	-6640
elli	-6641
eman	-6642
ence	-6643
enen	-6644
enew	-6645
ensi	-6646
ensu	-6647
ente	-6648
enti	-6649
ents	-6650
enus	-6651
erin	-6652
erry	-6653
eshi	-6654
esto	-6655
etre	-6656
ewan	-6657
eƙir	-6658
fana	-6659
fane	-6660
fani	-6661
fari	-6662
fash	-6663
fawa	-6664
fers	-6665
fesa	-6666
ffar	-6667
fica	-6668
fici	-6669
fkin	-6670
flak	-6671
flav	-6672
ftar	-6673
fwan	-6674
gaba	-6675
gana	-6676
gani	-6677
gara	-6678
garu	-6679
gati	-6680
gawa	-6681
ggur	-6682
ghti	-6683
gini	-6684
giya	-6685
gogo	-6686
gowa	-6687
gung	-6688
hajo	-6689
hala	-6690
hana	-6691
hano	-6692
harh	-6693
hing	-6694
hmed	-6695
hmud	-6696
hohi	-6697
homa	-6698
htar	-6699
huga	-6700
huka	-6701
hunh	-6702
husa	-6703
iana	-6704
ibin	-6705
icha	-6706
icin	-6707
ifar	-6708
igar	-6709
ihar	-6710
ijer	-6711
ikar	-6712
ilar	-6713
ilin	-6714
illa	-6715
imai	-6716
imak	-6717
imar	-6718
imin	-6719
inad	-6720
inam	-6721
inan	-6722
inar	-6723
ince	-6724
inda	-6725
indi	-6726
inen	-6727
inki	-6728
inon	-6729
insa	-6730
insh	-6731
insi	-6732
irag	-6733
iran	-6734
irar	-6735
iren	-6736
irki	-6737
irma	-6738
irra	-6739
irye	-6740
isar	-6741
ishi	-6742
itar	-6743
itta	-6744
iure	-6745
iwar	-6746
iwon	-6747
iyal	-6748
iyan	-6749
iyay	-6750
iyya	-6751
izel	-6752
jara	-6753
jefi	-6754
jing	-6755
jins	-6756
jiye	-6757
jiyo	-6758
jobi	-6759
kaci	-6760
kafa	-6761
kafi	-6762
kalu	-6763
kani	-6764
kann	-6765
kany	-6766
kare	-6767
karu	-6768
kash	-6769
kata	-6770
kers	-6771
kesh	-6772
kici	-6773
kima	-6774
kinm	-6775
kins	-6776
kipe	-6777
kiro	-6778
kito	-6779
kiyo	-6780
kiɗa	-6781
kkan	-6782
kken	-6783
konn	-6784
kowa	-6785
ktar	-6786
kuta	-6787
kuwa	-6788
kwab	-6789
kwal	-6790
lace	-6791
lada	-6792
lade	-6793
lafa	-6794
lafi	-6795
laik	-6796
laka	-6797
lala	-6798
lama	-6799
lamo	-6800
lamu	-6801
lang	-6802
lani	-6803
lasa	-6804
lata	-6805
latu	-6806
laun	-6807
lawa	-6808
laye	-6809
lbar	-6810
leae	-6811
leci	-6812
lect	-6813
liba	-6814
libi	-6815
liki	-6816
liku	-6817
lili	-6818
limi	-6819
line	-6820
ling	-6821
lish	-6822
lita	-6823
liyo	-6824
llab	-6825
ller	-6826
llin	-6827
lman	-6828
loam	-6829
loda	-6830
lofi	-6831
loid	-6832
loka	-6833
lphi	-6834
ltiv	-6835
lura	-6836
main	-6837
maki	-6838
mala	-6839
mama	-6840
mana	-6841
manc	-6842
mane	-6843
mang	-6844
manh	-6845
mann	-6846
mano	-6847
mans	-6848
mant	-6849
manu	-6850
many	-6851
mara	-6852
marm	-6853
marn	-6854
maru	-6855
marw	-6856
masa	-6857
mash	-6858
mati	-6859
mawa	-6860
maye	-6861
mbar	-6862
mbia	-6863
mdam	-6864
mfan	-6865
mili	-6866
milo	-6867
mini	-6868
mint	-6869
misa	-6870
mish	-6871
mita	-6872
miya	-6873
mkar	-6874
mmam	-6875
mmar	-6876
mmed	-6877
monv	-6878
mphe	-6879
msha	-6880
msin	-6881
mtar	-6882
muke	-6883
muni	-6884
musa	-6885
musu	-6886
mutu	-6887
nata	-6888
ngan	-6889
njin	-6890
nown	-6891
ntan	-6892
nurs	-6893
obin	-6894
ofin	-6895
ogin	-6896
oham	-6897
ojin	-6898
okan	-6899
okin	-6900
okra	-6901
okta	-6902
olin	-6903
olor	-6904
olus	-6905
omak	-6906
omar	-6907
onar	-6908
onds	-6909
ones	-6910
onot	-6911
onsa	-6912
onsu	-6913
oran	-6914
orgh	-6915
orma	-6916
oron	-6917
oror	-6918
oshi	-6919
otas	-6920
otsi	-6921
owan	-6922
ower	-6923
oyar	-6924
oyin	-6925
oyon	-6926
pact	-6927
pani	-6928
pear	-6929
pedi	-6930
pers	-6931
poly	-6932
pose	-6933
pota	-6934
ract	-6935
rade	-6936
rafa	-6937
raft	-6938
rahi	-6939
rain	-6940
raja	-6941
raki	-6942
rala	-6943
rali	-6944
rama	-6945
rani	-6946
rare	-6947
rash	-6948
rawa	-6949
raya	-6950
razi	-6951
rder	-6952
reat	-6953
reke	-6954
ribe	-6955
riya	-6956
rlin	-6957
rman	-6958
roly	-6959
rubu	-6960
rwar	-6961
saba	-6962
sada	-6963
safa	-6964
safi	-6965
saga	-6966
saka	-6967
saki	-6968
saku	-6969
sala	-6970
salo	-6971
sare	-6972
saru	-6973
sash	-6974
sats	-6975
saun	-6976
saya	-6977
saye	-6978
sban	-6979
scen	-6980
sery	-6981
shek	-6982
shiy	-6983
sifi	-6984
sina	-6985
sira	-6986
sire	-6987
siro	-6988
sium	-6989
siya	-6990
skar	-6991
sken	-6992
sofa	-6993
soka	-6994
somi	-6995
stan	-6996
suna	-6997
susu	-6998
suwa	-6999
taba	-7000
tace	-7001
taci	-7002
tafa	-7003
tafi	-7004
tala	-7005
tang	-7006
tann	-7007
tard	-7008
tato	-7009
taun	-7010
ters	-7011
thin	-7012
tica	-7013
tila	-7014
tlan	-7015
towa	-7016
trea	-7017
tsal	-7018
tsan	-7019
tsat	-7020
tsir	-7021
ttac	-7022
ttaf	-7023
ttat	-7024
ture	-7025
tuƙa	-7026
uage	-7027
ubal	-7028
ubar	-7029
udan	-7030
ufin	-7031
ugar	-7032
uhun	-7033
uice	-7034
uine	-7035
uisi	-7036
ukun	-7037
ulai	-7038
ulne	-7039
uman	-7040
umat	-7041
umun	-7042
umur	-7043
unga	-7044
ungu	-7045
unka	-7046
unko	-7047
unsa	-7048
unsh	-7049
unsu	-7050
untu	-7051
unun	-7052
unwa	-7053
unƙa	-7054
urab	-7055
urba	-7056
urbi	-7057
urit	-7058
uror	-7059
urot	-7060
urru	-7061
urur	-7062
usal	-7063
usan	-7064
usar	-7065
usas	-7066
ushe	-7067
ussa	-7068
usuf	-7069
utan	-7070
utar	-7071
uwai	-7072
uyan	-7073
uyen	-7074
uɗaɗ	-7075
vann	-7076
very	-7077
vita	-7078
wace	-7079
wain	-7080
wama	-7081
wamf	-7082
wami	-7083
wamn	-7084
wana	-7085
wanc	-7086
wand	-7087
wane	-7088
wani	-7089
wanj	-7090
wann	-7091
wans	-7092
want	-7093
wanz	-7094
wanƙ	-7095
wark	-7096
waro	-7097
warw	-7098
waur	-7099
waya	-7100
wayo	-7101
wiwa	-7102
wpea	-7103
xtra	-7104
yafa	-7105
yaka	-7106
yaki	-7107
yala	-7108
yana	-7109
yani	-7110
yank	-7111
yans	-7112
yanz	-7113
yaru	-7114
yasa	-7115
yash	-7116
yata	-7117
yaye	-7118
yayi	-7119
ycin	-7120
yesa	-7121
yesh	-7122
yrup	-7123
yste	-7124
yubi	-7125
yuwa	-7126
yyab	-7127
zali	-7128
zana	-7129
ziki	-7130
zuka	-7131
zuwa	-7132
õmbo	-7133
Ƙara	-7134
Ƙira	-7135
Ƙung	-7136
ƙaba	-7137
ƙaci	-7138
ƙaho	-7139
ƙara	-7140
ƙari	-7141
ƙash	-7142
ƙaƙa	-7143
ƙaƙe	-7144
ƙila	-7145
ƙiri	-7146
ƙiro	-7147
ƙirƙ	-7148
ƙwan	-7149
ƴaƴa	-7150
ɓaka	-7151
ɓara	-7152
ɓasa	-7153
ɗaka	-7154
ɗali	-7155
ɗann	-7156
ɗare	-7157
ɗawa	-7158
ɗuma	-7159
▁1.8	-7160
▁11,	-7161
▁121	-7162
▁165	-7163
▁168	-7164
▁178	-7165
▁2,9	-7166
▁200	-7167
▁203	-7168
▁3.1	-7169
▁900	-7170
▁AMS	-7171
▁Abe	-7172
▁Ada	-7173
▁Ala	-7174
▁Ali	-7175
▁And	-7176
▁Are	-7177
▁Aur	-7178
▁Awa	-7179
▁Aya	-7180
▁Bal	-7181
▁Bar	-7182
▁Bic	-7183
▁Bug	-7184
▁Bur	-7185
▁Chi	-7186
▁Cit	-7187
▁Com	-7188
▁DAM	-7189
▁DIK	-7190
▁Dab	-7191
▁Dak	-7192
▁Dee	-7193
▁Del	-7194
▁Dik	-7195
▁Eri	-7196
▁Far	-7197
▁Fas	-7198
▁Gar	-7199
▁Gir	-7200
▁God	-7201
▁Gon	-7202
▁HAN	-7203
▁Had	-7204
▁Hat	-7205
▁Hau	-7206
▁Haƙ	-7207
▁His	-7208
▁Hor	-7209
▁Huk	-7210
▁Ija	-7211
▁Ili	-7212
▁Ind	-7213
▁Ing	-7214
▁Jap	-7215
▁Jef	-7216
▁Jin	-7217
▁KIW	-7218
▁Kab	-7219
▁Kad	-7220
▁Kaj	-7221
▁Kar	-7222
▁Kas	-7223
▁Kim	-7224
▁Kun	-7225
▁Kur	-7226
▁Lan	-7227
▁Ler	-7228
▁MAN	-7229
▁MAS	-7230
▁Mad	-7231
▁Maj	-7232
▁Map	-7233
▁Mar	-7234
▁May	-7235
▁Mex	-7236
▁Min	-7237
▁Muk	-7238
▁Mut	-7239
▁NAD	-7240
▁NOM	-7241
▁Nad	-7242
▁Nas	-7243
▁Nij	-7244
▁Pap	-7245
▁Pha	-7246
▁Phi	-7247
▁Pon	-7248
▁RAN	-7249
▁Raɗ	-7250
▁Run	-7251
▁SAD	-7252
▁SAM	-7253
▁Sac	-7254
▁Sam	-7255
▁Sar	-7256
▁Sas	-7257
▁Sau	-7258
▁Sav	-7259
▁Shi	-7260
▁Shu	-7261
▁Sor	-7262
▁Sub	-7263
▁Tir	-7264
▁Tur	-7265
▁Vig	-7266
▁Vir	-7267
▁Wad	-7268
▁Waj	-7269
▁Yah	-7270
▁Yak	-7271
▁Yam	-7272
▁Zab	-7273
▁Zal	-7274
▁Zar	-7275
▁alN	-7276
▁alb	-7277
▁alf	-7278
▁alh	-7279
▁ams	-7280
▁art	-7281
▁arz	-7282
▁asa	-7283
▁ash	-7284
▁asi	-7285
▁aur	-7286
▁awa	-7287
▁aya	-7288
▁aza	-7289
▁bac	-7290
▁bak	-7291
▁bal	-7292
▁bam	-7293
▁bas	-7294
▁bat	-7295
▁bay	-7296
▁baz	-7297
▁bic	-7298
▁bid	-7299
▁bis	-7300
▁biy	-7301
▁bro	-7302
▁bud	-7303
▁bug	-7304
▁buh	-7305
▁buk	-7306
▁bul	-7307
▁cal	-7308
▁cib	-7309
▁cig	-7310
▁cik	-7311
▁cim	-7312
▁cir	-7313
▁ciw	-7314
▁ciy	-7315
▁ciz	-7316
▁com	-7317
▁cre	-7318
▁cro	-7319
▁cul	-7320
▁cus	-7321
▁dac	-7322
▁daf	-7323
▁dag	-7324
▁daj	-7325
▁dak	-7326
▁dal	-7327
▁dar	-7328
▁das	-7329
▁dat	-7330
▁dau	-7331
▁daw	-7332
▁day	-7333
▁daz	-7334
▁daƙ	-7335
▁daɗ	-7336
▁dia	-7337
▁dim	-7338
▁dip	-7339
▁diz	-7340
▁dob	-7341
▁dok	-7342
▁dol	-7343
▁dom	-7344
▁dor	-7345
▁dri	-7346
▁dum	-7347
▁dur	-7348
▁fad	-7349
▁faf	-7350
▁fah	-7351
▁fan	-7352
▁fas	-7353
▁fat	-7354
▁faɗ	-7355
▁fet	-7356
▁fey	-7357
▁fic	-7358
▁fin	-7359
▁fir	-7360
▁fit	-7361
▁fiy	-7362
▁fya	-7363
▁gab	-7364
▁gad	-7365
▁gag	-7366
▁gai	-7367
▁gaj	-7368
▁gal	-7369
▁gam	-7370
▁gay	-7371
▁gaz	-7372
▁ger	-7373
▁giz	-7374
▁giɓ	-7375
▁gug	-7376
▁gui	-7377
▁guj	-7378
▁gum	-7379
▁gun	-7380
▁gya	-7381
▁had	-7382
▁haj	-7383
▁hak	-7384
▁hal	-7385
▁hau	-7386
▁haƙ	-7387
▁haɓ	-7388
▁haɗ	-7389
▁hek	-7390
▁hel	-7391
▁hor	-7392
▁huj	-7393
▁huk	-7394
▁huɓ	-7395
▁inf	-7396
▁ing	-7397
▁inj	-7398
▁int	-7399
▁ire	-7400
▁irr	-7401
▁jag	-7402
▁jak	-7403
▁jig	-7404
▁jih	-7405
▁jun	-7406
▁jur	-7407
▁kac	-7408
▁kad	-7409
▁kaf	-7410
▁kah	-7411
▁kaj	-7412
▁kam	-7413
▁kap	-7414
▁kas	-7415
▁kat	-7416
▁kaw	-7417
▁kay	-7418
▁kee	-7419
▁ken	-7420
▁ker	-7421
▁kif	-7422
▁kim	-7423
▁kin	-7424
▁kio	-7425
▁kit	-7426
▁kok	-7427
▁kom	-7428
▁kor	-7429
▁koy	-7430
▁kub	-7431
▁kud	-7432
▁kuf	-7433
▁kuk	-7434
▁kul	-7435
▁kur	-7436
▁kus	-7437
▁kut	-7438
▁kuz	-7439
▁kuɗ	-7440
▁lab	-7441
▁lac	-7442
▁laf	-7443
▁lai	-7444
▁lak	-7445
▁lal	-7446
▁lau	-7447
▁leg	-7448
▁liv	-7449
▁lok	-7450
▁lur	-7451
▁mac	-7452
▁maf	-7453
▁mah	-7454
▁maj	-7455
▁mak	-7456
▁mal	-7457
▁mat	-7458
▁may	-7459
▁maz	-7460
▁maƙ	-7461
▁mon	-7462
▁mor	-7463
▁mud	-7464
▁muh	-7465
▁mur	-7466
▁mut	-7467
▁nai	-7468
▁nam	-7469
▁nar	-7470
▁nas	-7471
▁naz	-7472
▁nem	-7473
▁nit	-7474
▁non	-7475
▁num	-7476
▁nun	-7477
▁pre	-7478
▁pur	-7479
▁rab	-7480
▁raf	-7481
▁raj	-7482
▁rak	-7483
▁ram	-7484
▁rar	-7485
▁ras	-7486
▁raw	-7487
▁rig	-7488
▁rin	-7489
▁riƙ	-7490
▁rug	-7491
▁run	-7492
▁ruq	-7493
▁ruɓ	-7494
▁sac	-7495
▁saf	-7496
▁sah	-7497
▁sak	-7498
▁sal	-7499
▁sas	-7500
▁sat	-7501
▁sav	-7502
▁say	-7503
▁sec	-7504
▁she	-7505
▁sin	-7506
▁soi	-7507
▁soj	-7508
▁sor	-7509
▁spe	-7510
▁sub	-7511
▁suf	-7512
▁suk	-7513
▁sur	-7514
▁swe	-7515
▁tab	-7516
▁tac	-7517
▁tai	-7518
▁tak	-7519
▁tal	-7520
▁tas	-7521
▁tau	-7522
▁taƙ	-7523
▁taɓ	-7524
▁tek	-7525
▁tin	-7526
▁tit	-7527
▁tom	-7528
▁tsu	-7529
▁tub	-7530
▁tuw	-7531
▁und	-7532
▁uni	-7533
▁unk	-7534
▁wac	-7535
▁wah	-7536
▁wak	-7537
▁was	-7538
▁way	-7539
▁yab	-7540
▁yad	-7541
▁yak	-7542
▁yal	-7543
▁yam	-7544
▁yas	-7545
▁yat	-7546
▁yaw	-7547
▁yay	-7548
▁yaƙ	-7549
▁yaɗ	-7550
▁yiw	-7551
▁zab	-7552
▁zaf	-7553
▁zah	-7554
▁zak	-7555
▁zal	-7556
▁zam	-7557
▁zat	-7558
▁zaz	-7559
▁zaƙ	-7560
▁zaɓ	-7561
▁zir	-7562
▁ƙal	-7563
▁ƙan	-7564
▁ƙay	-7565
▁ƙwa	-7566
▁ɓul	-7567
▁ɗau	-7568
▁ɗum	-7569
,200,	-7570
,300.	-7571
0,000	-7572
3,000	-7573
48960	-7574
5,040	-7575
7,000	-7576
9,000	-7577
ABBAR	-7578
ABUBU	-7579
ALAYY	-7580
ASABA	-7581
AYYEN	-7582
Abbas	-7583
Binci	-7584
Danka	-7585
EMENT	-7586
Graft	-7587
HARSH	-7588
KADCC	-7589
Kazal	-7590
Kwana	-7591
Moimo	-7592
Sarra	-7593
Sucke	-7594
Tasir	-7595
Tsats	-7596
Yadda	-7597
aboda	-7598
aceae	-7599
akama	-7600
anada	-7601
anana	-7602
anani	-7603
anare	-7604
anawa	-7605
anayi	-7606
anban	-7607
ancen	-7608
andar	-7609
anene	-7610
angan	-7611
angar	-7612
anima	-7613
aniya	-7614
ankan	-7615
ankin	-7616
annah	-7617
annon	-7618
annua	-7619
annun	-7620
anoma	-7621
anono	-7622
anshi	-7623
antso	-7624
anufa	-7625
anusi	-7626
anyar	-7627
anyen	-7628
araba	-7629
arade	-7630
arami	-7631
arara	-7632
arare	-7633
arasa	-7634
arata	-7635
aratu	-7636
arawa	-7637
arden	-7638
aresh	-7639
arewa	-7640
arfen	-7641
arfin	-7642
argin	-7643
arihi	-7644
arkar	-7645
arkon	-7646
armin	-7647
aruwa	-7648
arwar	-7649
asana	-7650
asara	-7651
ashin	-7652
ation	-7653
azari	-7654
baben	-7655
bacin	-7656
bance	-7657
banin	-7658
batar	-7659
batsa	-7660
bayan	-7661
bayar	-7662
bbaci	-7663
bbata	-7664
belmo	-7665
biIdi	-7666
binci	-7667
binda	-7668
binon	-7669
binsa	-7670
binsu	-7671
biyar	-7672
bobin	-7673
bokan	-7674
bonsa	-7675
brahi	-7676
bucen	-7677
bundu	-7678
burin	-7679
ciali	-7680
ciken	-7681
cikin	-7682
cinar	-7683
cinsu	-7684
cinye	-7685
cokan	-7686
culne	-7687
daban	-7688
dabin	-7689
dadar	-7690
dadin	-7691
dakar	-7692
damar	-7693
damin	-7694
danai	-7695
danan	-7696
danci	-7697
danda	-7698
danka	-7699
dansu	-7700
daran	-7701
darin	-7702
dashi	-7703
datar	-7704
ddabi	-7705
ddiga	-7706
dojin	-7707
drain	-7708
dugar	-7709
dukan	-7710
dumar	-7711
dumma	-7712
ecuri	-7713
edlin	-7714
ekaru	-7715
emonv	-7716
enene	-7717
enera	-7718
eriya	-7719
erlin	-7720
etres	-7721
fanin	-7722
farka	-7723
fashi	-7724
ficin	-7725
finsu	-7726
funan	-7727
fuwan	-7728
gabar	-7729
gajin	-7730
gance	-7731
ganci	-7732
garin	-7733
garor	-7734
gaɗin	-7735
genus	-7736
gombo	-7737
goran	-7738
gunan	-7739
halha	-7740
halli	-7741
hanka	-7742
harhi	-7743
harum	-7744
hawar	-7745
himci	-7746
himta	-7747
hingg	-7748
hirya	-7749
hohin	-7750
hoton	-7751
hukar	-7752
icula	-7753
idawa	-7754
igaka	-7755
ighti	-7756
ikari	-7757
ikito	-7758
ikumu	-7759
imaka	-7760
imako	-7761
imbin	-7762
inada	-7763
incin	-7764
inder	-7765
indin	-7766
ingdo	-7767
iniya	-7768
inkin	-7769
inkir	-7770
inshi	-7771
inubu	-7772
irane	-7773
irare	-7774
irgin	-7775
irkir	-7776
irman	-7777
iryen	-7778
irƙir	-7779
isali	-7780
iyala	-7781
iyali	-7782
iyawa	-7783
iyayi	-7784
iyoyi	-7785
jarat	-7786
jinan	-7787
jioke	-7788
jobin	-7789
jojin	-7790
kacin	-7791
kafar	-7792
kafin	-7793
kafor	-7794
kaiwa	-7795
kamai	-7796
kamak	-7797
kaman	-7798
kanci	-7799
kanda	-7800
kanni	-7801
kanta	-7802
kanyi	-7803
karan	-7804
karda	-7805
karka	-7806
karun	-7807
karwa	-7808
kasar	-7809
katan	-7810
katun	-7811
kawar	-7812
kewan	-7813
kinmu	-7814
kinsa	-7815
kinsu	-7816
kirar	-7817
kitar	-7818
konni	-7819
kushe	-7820
kutan	-7821
lafin	-7822
lamar	-7823
lansu	-7824
lanta	-7825
lanti	-7826
larta	-7827
lassi	-7828
lauci	-7829
lawar	-7830
layar	-7831
layen	-7832
lbasa	-7833
lekwa	-7834
ligen	-7835
lilin	-7836
liman	-7837
linsa	-7838
linta	-7839
lisar	-7840
lishi	-7841
lissa	-7842
litar	-7843
litta	-7844
littu	-7845
llafa	-7846
llafi	-7847
llaka	-7848
llata	-7849
lldra	-7850
llers	-7851
lphia	-7852
lunan	-7853
lwata	-7854
lycin	-7855
lyplo	-7856
macin	-7857
maita	-7858
makin	-7859
makon	-7860
malan	-7861
mamar	-7862
manan	-7863
manci	-7864
manda	-7865
mansu	-7866
manta	-7867
marar	-7868
marda	-7869
marta	-7870
marwa	-7871
mashi	-7872
matir	-7873
mayya	-7874
mfani	-7875
mfuri	-7876
mhuri	-7877
minen	-7878
minis	-7879
miyar	-7880
miyya	-7881
mosch	-7882
mphee	-7883
mshin	-7884
munan	-7885
muran	-7886
ntane	-7887
oluso	-7888
omako	-7889
omawa	-7890
omcor	-7891
a	-7892
▁	-7893
n	-7894
i	-7895
k	-7896
r	-7897
d	-7898
u	-7899
m	-7900
s	-7901
t	-7902
y	-7903
e	-7904
o	-7905
w	-7906
b	-7907
h	-7908
g	-7909
c	-7910
f	-7911
l	-7912
,	-7913
.	-7914
z	-7915
j	-7916
A	-7917
ƙ	-7918
K	-7919
'	-7920
0	-7921
S	-7922
M	-7923
N	-7924
ɗ	-7925
D	-7926
H	-7927
I	-7928
W	-7929
B	-7930
Y	-7931
:	-7932
T	-7933
G	-7934
R	-7935
1	-7936
’	-7937
(	-7938
)	-7939
2	-7940
F	-7941
"	-7942
Z	-7943
p	-7944
E	-7945
L	-7946
ɓ	-7947
‘	-7948
C	-7949
;	-7950
3	-7951
ƴ	-7952
U	-7953
6	-7954
8	-7955
J	-7956
O	-7957
P	-7958
9	-7959
4	-7960
5	-7961
7	-7962
?	-7963
v	-7964
V	-7965
Ƴ	-7966
“	-7967
x	-7968
Ƙ	-7969
”	-7970
[	-7971
`	-7972
Ɗ	-7973
]	-7974
/	-7975
q	-7976
Ɓ	-7977
–	-7978
!	-7979
Q	-7980
õ	-7981
š	-7982
ɔ	-7983
ə	-7984
ɡ	-7985
ˈ	-7986
ː	-7987
د	-7988
س	-7989
ن	-7990
